{"version": "1.0", "truncation": null, "padding": null, "added_tokens": [], "normalizer": {"type": "NFKC"}, "pre_tokenizer": {"type": "Metaspace", "replacement": "▁", "prepend_scheme": "always"}, "post_processor": null, "decoder": {"type": "Metaspace", "replacement": "▁"}, "model": {"type": "Unigram", "unk_id": 0, "vocab": [["<unk>", 0.0], ["<s>", 0.0], ["</s>", 0.0], ["<pad>", 0.0], [".", -3.2449910640716553], ["▁", -3.8111674785614014], [",", -3.9101991653442383], ["s", -4.991228103637695], ["a", -5.314981937408447], ["i", -5.507809638977051], ["▁a", -5.513573169708252], ["e", -5.546437740325928], ["।", -5.550078392028809], ["▁de", -5.597989559173584], ["t", -5.9631028175354], ["u", -5.991269588470459], ["o", -6.012366771697998], ["'", -6.040299892425537], ["n", -6.274404525756836], ["▁на", -6.280065059661865], ["▁in", -6.312674045562744], ["▁la", -6.3193254470825195], ["▁na", -6.347222805023193], ["。", -6.463576316833496], ["▁i", -6.508354187011719], ["en", -6.525839328765869], ["m", -6.537050247192383], ["а", -6.6087493896484375], ["▁в", -6.647217273712158], ["▁se", -6.647257328033447], ["▁u", -6.668561935424805], ["▁en", -6.677791595458984], ["▁die", -6.6810455322265625], ["d", -6.694812774658203], ["и", -6.726892948150635], ["▁je", -6.786864757537842], ["te", -6.824735641479492], ["r", -6.831072807312012], ["▁د", -6.843005657196045], ["▁и", -6.851032733917236], ["▁o", -6.8575849533081055], ["y", -6.858006477355957], ["?", -6.860850811004639], ["▁da", -6.867982864379883], ["▁di", -6.88720178604126], ["▁to", -6.904907703399658], ["▁за", -6.907011032104492], ["▁is", -6.924684047698975], ["ti", -6.943099498748779], ["ta", -6.944145679473877], ["▁un", -6.965153217315674], ["na", -6.966549873352051], ["▁ya", -6.980621814727783], ["▁the", -6.992108345031738], ["▁on", -6.992956161499023], ["k", -6.9978437423706055], ["▁e", -7.054820537567139], ["an", -7.059281349182129], ["in", -7.060888767242432], ["ni", -7.083037853240967], ["da", -7.087958335876465], ["у", -7.1112961769104], ["h", -7.114114284515381], ["le", -7.116551399230957], ["▁su", -7.133267402648926], ["▁ja", -7.133946418762207], ["as", -7.14312744140625], ["▁ka", -7.148888111114502], ["ka", -7.161472320556641], ["es", -7.169668197631836], ["er", -7.173526287078857], ["▁ku", -7.178669452667236], ["ی", -7.178755760192871], ["▁wa", -7.184762477874756], ["▁le", -7.2031049728393555], ["b", -7.2127909660339355], ["de", -7.212971210479736], ["،", -7.2162981033325195], ["re", -7.230497360229492], ["▁w", -7.231062412261963], ["▁و", -7.233427047729492], ["la", -7.239573001861572], ["ne", -7.249083518981934], ["▁za", -7.2500128746032715], ["li", -7.261906623840332], ["l", -7.2695231437683105], ["▁do", -7.287693500518799], ["▁по", -7.294440746307373], ["ma", -7.2947564125061035], ["ja", -7.295652389526367], ["▁да", -7.308891296386719], ["，", -7.3115105628967285], ["▁no", -7.331775665283203], ["▁van", -7.333610534667969], ["▁не", -7.363224506378174], ["▁het", -7.375539779663086], ["▁que", -7.3804802894592285], ["▁mu", -7.38053035736084], ["z", -7.382565021514893], ["ه", -7.384975433349609], ["ga", -7.394141674041748], ["c", -7.395709991455078], ["to", -7.398062229156494], ["е", -7.417006492614746], ["▁се", -7.421941757202148], ["ን", -7.42432975769043], ["▁የ", -7.427048206329346], ["is", -7.43170166015625], ["▁ir", -7.43180513381958], ["▁ne", -7.438755989074707], ["▁el", -7.44395112991333], ["os", -7.459930896759033], ["si", -7.46258020401001], ["▁n", -7.467419624328613], ["ar", -7.471053600311279], ["▁у", -7.472542762756348], ["▁l", -7.479610443115234], ["▁be", -7.484444618225098], ["▁در", -7.494067668914795], ["▁te", -7.4951605796813965], ["ed", -7.507235527038574], ["▁с", -7.519561767578125], ["м", -7.5257110595703125], ["‌", -7.5301642417907715], ["ra", -7.537108421325684], ["▁po", -7.54956579208374], ["т", -7.557434558868408], ["о", -7.560441493988037], ["no", -7.573934555053711], ["на", -7.575469493865967], ["та", -7.57779598236084], ["▁y", -7.585077285766602], ["p", -7.586065292358398], ["▁s", -7.587960720062256], ["j", -7.588684558868408], ["▁ko", -7.599742412567139], ["st", -7.599871635437012], ["▁е", -7.600020408630371], ["g", -7.600761890411377], ["ରେ", -7.601644039154053], ["▁al", -7.607814311981201], ["▁19", -7.6089186668396], ["▁во", -7.622072219848633], ["▁er", -7.623504638671875], ["us", -7.627991199493408], ["▁í", -7.632880687713623], ["je", -7.636230945587158], ["н", -7.636797904968262], ["ة", -7.637258052825928], ["▁z", -7.6627936363220215], ["▁ال", -7.66855525970459], ["ي", -7.673500061035156], ["▁of", -7.6739912033081055], ["v", -7.681667804718018], ["▁છે", -7.68454122543335], ["ul", -7.685204982757568], ["の", -7.687263488769531], ["▁በ", -7.708807468414307], ["ы", -7.715498447418213], ["f", -7.727399826049805], ["ing", -7.737122535705566], ["▁के", -7.746464729309082], ["ም", -7.754854202270508], ["▁il", -7.759826183319092], ["ko", -7.763656139373779], ["▁op", -7.766562461853027], ["▁per", -7.767974853515625], ["▁d", -7.768076419830322], ["▁به", -7.774158954620361], ["▁sa", -7.774836540222168], ["▁pa", -7.7803754806518555], ["▁ma", -7.782626152038574], ["ri", -7.785582542419434], ["ge", -7.788756847381592], ["的", -7.78943395614624], ["▁and", -7.791000843048096], ["을", -7.796760082244873], ["se", -7.798019886016846], ["va", -7.800134181976318], ["이", -7.80378532409668], ["і", -7.803934097290039], ["ki", -7.805744171142578], ["▁að", -7.808361053466797], ["▁ha", -7.8118696212768555], ["▁az", -7.814243793487549], ["▁ar", -7.827352523803711], ["me", -7.829563140869141], ["do", -7.8344011306762695], ["▁में", -7.845634937286377], ["▁от", -7.847456455230713], ["▁m", -7.84824275970459], ["▁2", -7.852908134460449], ["▁á", -7.862267017364502], ["ର", -7.863139629364014], ["▁et", -7.868391513824463], ["▁ba", -7.870942115783691], ["▁con", -7.87244176864624], ["▁der", -7.8759765625], ["ā", -7.878405570983887], ["wa", -7.880820274353027], ["▁og", -7.8818559646606445], ["▁до", -7.884468078613281], ["at", -7.885252952575684], ["я", -7.88765811920166], ["、", -7.88945198059082], ["▁ni", -7.889946460723877], ["ни", -7.892144680023193], ["▁ve", -7.894866943359375], ["л", -7.897587299346924], ["▁ver", -7.898097515106201], ["▁nie", -7.9009246826171875], ["▁si", -7.907111167907715], ["да", -7.907721519470215], ["র", -7.9084672927856445], ["▁ਹੈ", -7.915768146514893], ["mo", -7.9175639152526855], ["▁په", -7.919880390167236], ["▁3", -7.9234938621521], ["▁1", -7.929614067077637], ["ą", -7.935911655426025], ["▁es", -7.939853191375732], ["но", -7.94102668762207], ["ju", -7.9467973709106445], ["ের", -7.948564529418945], ["ro", -7.962497711181641], ["al", -7.965180397033691], ["zi", -7.967098236083984], ["▁od", -7.969579696655273], ["▁pe", -7.970712661743164], ["к", -7.971017360687256], ["ના", -7.971545696258545], ["માં", -7.973543643951416], ["sa", -7.978232383728027], ["▁as", -7.980753421783447], ["ke", -7.980802059173584], ["kan", -7.984888076782227], ["те", -7.992171287536621], ["▁की", -7.995448589324951], ["ve", -7.995521068572998], ["▁од", -7.996803283691406], ["ur", -8.001035690307617], ["▁para", -8.00294017791748], ["▁în", -8.003100395202637], ["▁ge", -8.004491806030273], ["▁है", -8.010412216186523], ["ка", -8.010974884033203], ["ে", -8.01518440246582], ["п", -8.019569396972656], ["▁re", -8.02613639831543], ["ς", -8.027851104736328], ["ci", -8.037337303161621], ["ം", -8.044144630432129], ["tu", -8.04702091217041], ["의", -8.049188613891602], ["di", -8.052169799804688], ["za", -8.052419662475586], ["▁me", -8.056273460388184], ["は", -8.058103561401367], ["▁ki", -8.063417434692383], ["ी", -8.064271926879883], ["ba", -8.064570426940918], ["▁um", -8.064794540405273], ["▁covid", -8.067770957946777], ["et", -8.068151473999023], ["▁а", -8.068717002868652], ["▁dan", -8.069308280944824], ["ku", -8.071038246154785], ["em", -8.077197074890137], ["um", -8.077794075012207], ["▁10", -8.077831268310547], ["▁και", -8.077977180480957], ["ca", -8.0801420211792], ["ten", -8.080385208129883], ["й", -8.082942008972168], ["от", -8.087577819824219], ["ની", -8.088236808776855], ["▁du", -8.088974952697754], ["ات", -8.094834327697754], ["nya", -8.09643840789795], ["ce", -8.098132133483887], ["mi", -8.101295471191406], ["▁از", -8.101784706115723], ["ha", -8.10399341583252], ["▁par", -8.104477882385254], ["▁5", -8.105113983154297], ["에", -8.106566429138184], ["▁کې", -8.106575012207031], ["▁في", -8.10743236541748], ["▁ਦੇ", -8.108818054199219], ["▁4", -8.109965324401855], ["▁bu", -8.112468719482422], ["▁so", -8.112707138061523], ["▁з", -8.115667343139648], ["و", -8.120932579040527], ["▁oo", -8.124253273010254], ["▁à", -8.136092185974121], ["ir", -8.141716957092285], ["gi", -8.143271446228027], ["▁bi", -8.144523620605469], ["を", -8.144790649414062], ["ya", -8.14708137512207], ["ли", -8.151727676391602], ["lo", -8.153717041015625], ["▁at", -8.158610343933105], ["w", -8.15960693359375], ["▁b", -8.16239070892334], ["в", -8.162940979003906], ["it", -8.165087699890137], ["▁со", -8.16596794128418], ["ų", -8.167466163635254], ["▁des", -8.170648574829102], ["id", -8.172597885131836], ["▁iz", -8.1732816696167], ["ት", -8.182011604309082], ["ದ", -8.186223983764648], ["▁من", -8.187231063842773], ["we", -8.189007759094238], ["ा", -8.189321517944336], ["go", -8.192000389099121], ["▁een", -8.193171501159668], ["el", -8.1942777633667], ["▁20", -8.19461441040039], ["▁م", -8.197153091430664], ["im", -8.198871612548828], ["▁for", -8.200482368469238], ["ና", -8.202880859375], ["に", -8.209175109863281], ["ا", -8.210394859313965], ["▁mi", -8.223835945129395], ["▁است", -8.22676944732666], ["ம்", -8.23145580291748], ["с", -8.23478889465332], ["▁ke", -8.236061096191406], ["▁15", -8.23702621459961], ["be", -8.238015174865723], ["ው", -8.23913288116455], ["▁an", -8.24759578704834], ["が", -8.250359535217285], ["▁c", -8.251208305358887], ["ите", -8.251874923706055], ["ă", -8.251932144165039], ["▁au", -8.253142356872559], ["▁les", -8.253985404968262], ["▁ਵਿੱਚ", -8.254326820373535], ["▁met", -8.255165100097656], ["።", -8.258771896362305], ["가", -8.265120506286621], ["▁yang", -8.266213417053223], ["га", -8.273102760314941], ["nu", -8.277314186096191], ["े", -8.277746200561523], ["م", -8.279043197631836], ["▁او", -8.279797554016113], ["▁was", -8.280099868774414], ["▁से", -8.281021118164062], ["▁при", -8.28390121459961], ["un", -8.287528991699219], ["ho", -8.289556503295898], ["은", -8.28978157043457], ["▁को", -8.290719985961914], ["am", -8.291996955871582], ["▁ਦੀ", -8.29212474822998], ["▁we", -8.293183326721191], ["▁em", -8.293676376342773], ["vi", -8.294682502746582], ["pa", -8.294975280761719], ["▁por", -8.296744346618652], ["▁το", -8.298990249633789], ["ch", -8.302814483642578], ["ла", -8.303600311279297], ["▁nu", -8.31295108795166], ["ai", -8.313761711120605], ["▁ei", -8.318452835083008], ["▁2021", -8.319122314453125], ["den", -8.322199821472168], ["▁del", -8.322720527648926], ["on", -8.324679374694824], ["는", -8.329668045043945], ["ت", -8.334163665771484], ["du", -8.334524154663086], ["▁kwa", -8.334755897521973], ["▁he", -8.335236549377441], ["▁var", -8.335827827453613], ["ية", -8.337003707885742], ["то", -8.339078903198242], ["om", -8.340435028076172], ["क", -8.340950965881348], ["▁dat", -8.34101676940918], ["ે", -8.341747283935547], ["sta", -8.345416069030762], ["र", -8.346816062927246], ["ek", -8.347975730895996], ["▁را", -8.355327606201172], ["त", -8.359441757202148], ["ды", -8.362589836120605], ["▁о", -8.36334228515625], ["▁ਨੂੰ", -8.363837242126465], ["▁про", -8.364858627319336], ["г", -8.36623477935791], ["▁tu", -8.375264167785645], ["를", -8.375439643859863], ["▁ب", -8.376727104187012], ["bo", -8.376835823059082], ["ې", -8.383674621582031], ["▁این", -8.386137008666992], ["mu", -8.390397071838379], ["▁આ", -8.397344589233398], ["vo", -8.403288841247559], ["▁6", -8.403684616088867], ["▁का", -8.406262397766113], ["د", -8.407132148742676], ["▁आहे", -8.407443046569824], ["▁by", -8.408971786499023], ["ти", -8.410536766052246], ["ie", -8.412723541259766], ["lu", -8.41364860534668], ["р", -8.414179801940918], ["д", -8.418904304504395], ["▁om", -8.419390678405762], ["ly", -8.419428825378418], ["▁bir", -8.422276496887207], ["ä", -8.424976348876953], ["ને", -8.425402641296387], ["▁cu", -8.42629337310791], ["▁из", -8.428074836730957], ["ल", -8.43057918548584], ["ов", -8.431350708007812], ["ом", -8.431775093078613], ["▁12", -8.433758735656738], ["▁pro", -8.433989524841309], ["ó", -8.437257766723633], ["न", -8.437846183776855], ["bi", -8.439687728881836], ["▁und", -8.439937591552734], ["▁im", -8.439966201782227], ["ला", -8.442174911499023], ["é", -8.443181037902832], ["▁una", -8.444713592529297], ["з", -8.445405960083008], ["ye", -8.450981140136719], ["ш", -8.451027870178223], ["де", -8.451082229614258], ["не", -8.453150749206543], ["▁lo", -8.453627586364746], ["po", -8.4545259475708], ["ੇ", -8.454731941223145], ["ен", -8.454911231994629], ["କୁ", -8.45740795135498], ["ಯ", -8.458067893981934], ["ver", -8.458107948303223], ["ji", -8.458242416381836], ["▁18", -8.459510803222656], ["▁η", -8.460358619689941], ["1", -8.460914611816406], ["▁са", -8.46118450164795], ["▁jo", -8.465194702148438], ["▁ta", -8.46572208404541], ["ል", -8.472149848937988], ["▁sem", -8.474970817565918], ["ان", -8.477334976196289], ["ат", -8.480973243713379], ["▁kad", -8.4900541305542], ["▁ru", -8.49424934387207], ["്", -8.495692253112793], ["ር", -8.497371673583984], ["ರ", -8.500213623046875], ["il", -8.503644943237305], ["▁του", -8.506068229675293], ["ia", -8.509527206420898], ["▁30", -8.511736869812012], ["▁ce", -8.513736724853516], ["▁gu", -8.51480770111084], ["ik", -8.51523494720459], ["▁li", -8.515303611755371], ["▁ca", -8.515527725219727], ["도", -8.516000747680664], ["3", -8.518166542053223], ["ስ", -8.518560409545898], ["▁é", -8.520479202270508], ["ం", -8.521924018859863], ["▁ከ", -8.526782989501953], ["ੀ", -8.529181480407715], ["▁it", -8.532805442810059], ["▁መ", -8.534258842468262], ["▁k", -8.534623146057129], ["š", -8.536666870117188], ["▁aan", -8.539393424987793], ["х", -8.540246963500977], ["▁ت", -8.540728569030762], ["▁ri", -8.546364784240723], ["ки", -8.552083015441895], ["▁الم", -8.553168296813965], ["vu", -8.5546875], ["▁af", -8.557619094848633], ["▁با", -8.55954647064209], ["▁14", -8.566811561584473], ["▁να", -8.567940711975098], ["▁los", -8.568449020385742], ["­", -8.569561958312988], ["est", -8.570061683654785], ["man", -8.574722290039062], ["▁ਨੇ", -8.575281143188477], ["ва", -8.575512886047363], ["▁am", -8.577237129211426], ["▁ਦਾ", -8.577716827392578], ["2", -8.583550453186035], ["▁pre", -8.58487606048584], ["▁8", -8.5858736038208], ["ма", -8.586931228637695], ["▁com", -8.592720985412598], ["ru", -8.59697437286377], ["▁va", -8.598140716552734], ["▁11", -8.599958419799805], ["x", -8.601726531982422], ["▁та", -8.603438377380371], ["ot", -8.605608940124512], ["▁man", -8.607165336608887], ["▁bo", -8.607807159423828], ["▁voor", -8.608543395996094], ["ban", -8.61084270477295], ["▁7", -8.611495018005371], ["च", -8.61380672454834], ["ч", -8.61528491973877], ["▁ali", -8.616622924804688], ["లు", -8.617637634277344], ["▁له", -8.619501113891602], ["ు", -8.621932029724121], ["ਾਂ", -8.622269630432129], ["ze", -8.623990058898926], ["ę", -8.625847816467285], ["▁g", -8.628053665161133], ["he", -8.630131721496582], ["ler", -8.631832122802734], ["ð", -8.634516716003418], ["▁16", -8.636397361755371], ["▁ga", -8.642282485961914], ["ন", -8.64429759979248], ["▁که", -8.645942687988281], ["한", -8.646171569824219], ["▁της", -8.646697044372559], ["gu", -8.647516250610352], ["▁ने", -8.647677421569824], ["ter", -8.651411056518555], ["▁che", -8.651677131652832], ["▁ο", -8.655292510986328], ["▁fi", -8.657161712646484], ["▁με", -8.660737991333008], ["▁і", -8.661795616149902], ["ok", -8.66230583190918], ["▁uz", -8.6659517288208], ["▁ra", -8.666483879089355], ["▁ber", -8.666708946228027], ["ने", -8.66973876953125], ["▁that", -8.672088623046875], ["▁vir", -8.674847602844238], ["▁się", -8.675966262817383], ["▁24", -8.67790699005127], ["▁ter", -8.679390907287598], ["▁पर", -8.680065155029297], ["▁17", -8.681382179260254], ["α", -8.681483268737793], ["▁pas", -8.686514854431152], ["4", -8.686673164367676], ["म", -8.686748504638672], ["▁sam", -8.692466735839844], ["ь", -8.69472599029541], ["ю", -8.696648597717285], ["യ", -8.698981285095215], ["so", -8.700248718261719], ["લ", -8.70055103302002], ["లో", -8.700637817382812], ["▁co", -8.700704574584961], ["ల", -8.701895713806152], ["ു", -8.703668594360352], ["▁das", -8.704333305358887], ["ش", -8.705997467041016], ["bu", -8.706780433654785], ["▁è", -8.70815372467041], ["ો", -8.709494590759277], ["▁ل", -8.710891723632812], ["lar", -8.713228225708008], ["▁ਹਨ", -8.713459014892578], ["▁dit", -8.715320587158203], ["ं", -8.71551513671875], ["ਨ", -8.716983795166016], ["고", -8.718384742736816], ["▁για", -8.718754768371582], ["▁አ", -8.71905517578125], ["로", -8.719515800476074], ["で", -8.722082138061523], ["▁és", -8.725085258483887], ["ks", -8.725272178649902], ["▁fa", -8.726767539978027], ["gen", -8.727477073669434], ["ж", -8.728052139282227], ["▁25", -8.72806453704834], ["ig", -8.728341102600098], ["▁या", -8.729575157165527], ["ny", -8.730749130249023], ["▁13", -8.73317813873291], ["ға", -8.733785629272461], ["ο", -8.734591484069824], ["ме", -8.736759185791016], ["と", -8.739374160766602], ["▁અને", -8.740204811096191], ["ди", -8.740392684936523], ["ી", -8.741936683654785], ["▁din", -8.742953300476074], ["▁și", -8.743680000305176], ["▁την", -8.74422836303711], ["ή", -8.745912551879883], ["ty", -8.746026992797852], ["▁h", -8.746665954589844], ["or", -8.747087478637695], ["nie", -8.748079299926758], ["fa", -8.748384475708008], ["ு", -8.749346733093262], ["ді", -8.7500581741333], ["ers", -8.751668930053711], ["கள்", -8.752480506896973], ["ak", -8.753838539123535], ["ક", -8.755476951599121], ["ਲ", -8.760359764099121], ["cu", -8.762055397033691], ["lik", -8.764711380004883], ["ben", -8.765328407287598], ["ન", -8.767816543579102], ["지", -8.76895523071289], ["ssa", -8.770259857177734], ["ନ", -8.773103713989258], ["ut", -8.776785850524902], ["▁ci", -8.779082298278809], ["ия", -8.77995777130127], ["sti", -8.780439376831055], ["▁що", -8.782675743103027], ["▁meg", -8.783048629760742], ["ों", -8.783455848693848], ["▁pie", -8.78408432006836], ["nt", -8.78529167175293], ["ė", -8.787252426147461], ["ଙ୍କ", -8.789953231811523], ["ା", -8.790223121643066], ["ів", -8.791171073913574], ["स", -8.791988372802734], ["▁ein", -8.792440414428711], ["▁við", -8.7937593460083], ["▁ਸੀ", -8.796600341796875], ["ها", -8.79813289642334], ["人", -8.799010276794434], ["▁9", -8.799844741821289], ["▁p", -8.800227165222168], ["ল", -8.80134391784668], ["▁tra", -8.801369667053223], ["కు", -8.803741455078125], ["ні", -8.805024147033691], ["ό", -8.805371284484863], ["▁к", -8.805583000183105], ["ट", -8.806007385253906], ["▁să", -8.806653022766113], ["ನ", -8.808150291442871], ["▁dar", -8.809663772583008], ["í", -8.809874534606934], ["ina", -8.810223579406738], ["▁os", -8.811891555786133], ["wi", -8.812588691711426], ["▁mit", -8.81383228302002], ["▁iš", -8.815950393676758], ["▁oli", -8.81635856628418], ["▁mai", -8.820215225219727], ["▁அ", -8.820391654968262], ["▁į", -8.822102546691895], ["co", -8.824318885803223], ["б", -8.82754898071289], ["ി", -8.82878303527832], ["▁هم", -8.82972526550293], ["pe", -8.830953598022461], ["tan", -8.831305503845215], ["▁ਇਸ", -8.83179759979248], ["ই", -8.835548400878906], ["▁об", -8.836091041564941], ["▁21", -8.836227416992188], ["ത്", -8.836556434631348], ["▁kas", -8.836772918701172], ["ని", -8.841349601745605], ["▁ته", -8.841800689697266], ["pi", -8.846453666687012], ["▁f", -8.847554206848145], ["ment", -8.850914001464844], ["5", -8.851366996765137], ["▁este", -8.851962089538574], ["ista", -8.855915069580078], ["年", -8.85602855682373], ["▁til", -8.858960151672363], ["▁ap", -8.85986042022705], ["▁itu", -8.861300468444824], ["tas", -8.861364364624023], ["▁her", -8.862203598022461], ["ad", -8.863546371459961], ["han", -8.863556861877441], ["ге", -8.863983154296875], ["▁2020", -8.865255355834961], ["ಗೆ", -8.86658000946045], ["ste", -8.866996765136719], ["kin", -8.86981201171875], ["થી", -8.870122909545898], ["▁are", -8.870235443115234], ["▁ለ", -8.870763778686523], ["व", -8.872664451599121], ["▁ተ", -8.872701644897461], ["io", -8.873185157775879], ["ке", -8.873823165893555], ["▁على", -8.874259948730469], ["▁이", -8.876426696777344], ["der", -8.876575469970703], ["ent", -8.87926197052002], ["▁ਤੋਂ", -8.879884719848633], ["▁από", -8.884492874145508], ["▁v", -8.88666820526123], ["ن", -8.887531280517578], ["su", -8.889875411987305], ["க்", -8.891610145568848], ["▁sy", -8.892217636108398], ["▁nem", -8.894427299499512], ["ά", -8.895288467407227], ["ು", -8.896476745605469], ["6", -8.898041725158691], ["ата", -8.898150444030762], ["▁ي", -8.898359298706055], ["কে", -8.899187088012695], ["ι", -8.900362014770508], ["ਕ", -8.900843620300293], ["ele", -8.900970458984375], ["hu", -8.903777122497559], ["ку", -8.903885841369629], ["▁hogy", -8.904189109802246], ["tar", -8.906583786010742], ["ts", -8.90710735321045], ["▁kon", -8.910743713378906], ["ć", -8.911922454833984], ["ima", -8.91325569152832], ["▁आणि", -8.913536071777344], ["ରୁ", -8.91629695892334], ["ita", -8.917222023010254], ["sz", -8.919971466064453], ["प", -8.920703887939453], ["ক", -8.922529220581055], ["tion", -8.924172401428223], ["▁mo", -8.924596786499023], ["▁zu", -8.926535606384277], ["á", -8.926857948303223], ["▁22", -8.92882251739502], ["fi", -8.932026863098145], ["▁ook", -8.932122230529785], ["▁den", -8.932717323303223], ["य", -8.933402061462402], ["▁vor", -8.934718132019043], ["▁las", -8.934816360473633], ["ów", -8.9351167678833], ["い", -8.936436653137207], ["jo", -8.936765670776367], ["▁но", -8.93852710723877], ["ಿ", -8.938831329345703], ["▁چې", -8.939319610595703], ["▁r", -8.940473556518555], ["ið", -8.940503120422363], ["મ", -8.94092082977295], ["च्या", -8.94217586517334], ["大", -8.943347930908203], ["ही", -8.943955421447754], ["▁ал", -8.944257736206055], ["▁sal", -8.946022033691406], ["▁ŉ", -8.94676399230957], ["▁го", -8.947325706481934], ["▁mas", -8.947494506835938], ["▁pri", -8.948163986206055], ["▁ee", -8.950337409973145], ["ात", -8.950582504272461], ["▁ਤੇ", -8.950925827026367], ["▁wat", -8.951006889343262], ["▁ah", -8.952140808105469], ["zo", -8.952510833740234], ["କ", -8.953797340393066], ["nda", -8.956403732299805], ["▁est", -8.959095001220703], ["ਾ", -8.959953308105469], ["ло", -8.960095405578613], ["ska", -8.960097312927246], ["▁bet", -8.964649200439453], ["ле", -8.964954376220703], ["▁egy", -8.965019226074219], ["ого", -8.965056419372559], ["も", -8.965248107910156], ["▁sur", -8.966097831726074], ["▁ist", -8.966657638549805], ["ты", -8.968792915344238], ["▁ਅਤੇ", -8.969202041625977], ["ndo", -8.9715576171875], ["▁non", -8.972293853759766], ["▁അ", -8.972679138183594], ["men", -8.973114013671875], ["다", -8.974102973937988], ["ين", -8.974464416503906], ["ند", -8.975027084350586], ["▁ви", -8.976114273071289], ["ть", -8.976280212402344], ["▁हैं", -8.977093696594238], ["сы", -8.97808837890625], ["க", -8.978151321411133], ["ર", -8.978277206420898], ["▁23", -8.97858715057373], ["▁50", -8.978910446166992], ["дан", -8.979084014892578], ["નો", -8.97961139678955], ["خ", -8.980228424072266], ["മ", -8.981552124023438], ["에서", -8.982035636901855], ["ل", -8.983537673950195], ["▁gi", -8.983768463134766], ["ven", -8.984167098999023], ["▁or", -8.985501289367676], ["tur", -8.986735343933105], ["ع", -8.987042427062988], ["인", -8.9883394241333], ["▁val", -8.989144325256348], ["ada", -8.989180564880371], ["lan", -8.989762306213379], ["▁kan", -8.9904203414917], ["▁son", -8.990863800048828], ["ama", -8.997005462646484], ["▁cha", -8.99711799621582], ["▁ላይ", -8.997442245483398], ["▁τα", -8.997495651245117], ["గా", -8.999737739562988], ["▁t", -9.000316619873047], ["▁ਵੀ", -9.001863479614258], ["▁iyo", -9.002031326293945], ["▁vi", -9.002121925354004], ["▁ಅ", -9.002313613891602], ["мен", -9.004084587097168], ["న", -9.004473686218262], ["▁ਕਿ", -9.005568504333496], ["▁100", -9.005860328674316], ["ет", -9.006426811218262], ["ry", -9.007230758666992], ["ck", -9.008133888244629], ["▁आ", -9.008293151855469], ["▁ze", -9.00960922241211], ["▁أ", -9.009967803955078], ["ş", -9.013670921325684], ["▁ay", -9.014341354370117], ["asi", -9.01523208618164], ["ய", -9.017561912536621], ["▁with", -9.018479347229004], ["▁muri", -9.019323348999023], ["▁что", -9.019408226013184], ["ਸ", -9.019808769226074], ["▁де", -9.021586418151855], ["▁деп", -9.021994590759277], ["ine", -9.02369213104248], ["ł", -9.023735046386719], ["▁कि", -9.024447441101074], ["日", -9.025391578674316], ["hi", -9.025943756103516], ["ਰ", -9.026204109191895], ["ite", -9.027099609375], ["▁под", -9.027173042297363], ["▁भी", -9.027813911437988], ["一", -9.030420303344727], ["፣", -9.031646728515625], ["▁pour", -9.032373428344727], ["ль", -9.033388137817383], ["ना", -9.033852577209473], ["▁የሚ", -9.035855293273926], ["ድ", -9.03591251373291], ["▁you", -9.036985397338867], ["▁ayaa", -9.037001609802246], ["க்க", -9.038476943969727], ["▁tai", -9.038930892944336], ["ர்", -9.039917945861816], ["▁σε", -9.040375709533691], ["▁ro", -9.040838241577148], ["ын", -9.041032791137695], ["일", -9.042611122131348], ["ದಲ್ಲಿ", -9.044602394104004], ["▁అ", -9.046277046203613], ["ше", -9.049156188964844], ["▁auf", -9.049858093261719], ["ላ", -9.050091743469238], ["ко", -9.050413131713867], ["9", -9.05131721496582], ["േ", -9.052688598632812], ["▁ќе", -9.054057121276855], ["து", -9.054924011230469], ["▁não", -9.055538177490234], ["чи", -9.055774688720703], ["iem", -9.05678653717041], ["▁ini", -9.057199478149414], ["ий", -9.057637214660645], ["▁си", -9.058309555053711], ["lle", -9.062458038330078], ["在", -9.062943458557129], ["▁uit", -9.063789367675781], ["▁pra", -9.0642671585083], ["▁और", -9.064628601074219], ["▁پر", -9.066001892089844], ["য়", -9.06659984588623], ["▁ще", -9.067161560058594], ["▁mais", -9.06904411315918], ["▁менен", -9.07032585144043], ["yo", -9.070343017578125], ["‌های", -9.071925163269043], ["ну", -9.07197380065918], ["ും", -9.071982383728027], ["ಸ", -9.072333335876465], ["их", -9.075090408325195], ["▁zijn", -9.075616836547852], ["기", -9.07568645477295], ["ि", -9.07591724395752], ["ната", -9.077752113342285], ["ర్", -9.07809829711914], ["▁че", -9.080879211425781], ["ವ", -9.083637237548828], ["ଲ", -9.08502197265625], ["▁von", -9.085807800292969], ["ू", -9.08664608001709], ["▁від", -9.087471961975098], ["▁mis", -9.087555885314941], ["া", -9.087903022766113], ["és", -9.088117599487305], ["▁ಈ", -9.089951515197754], ["▁કે", -9.090899467468262], ["ist", -9.091315269470215], ["▁ser", -9.096981048583984], ["▁katika", -9.0986909866333], ["ту", -9.098723411560059], ["ب", -9.099296569824219], ["▁এ", -9.100062370300293], ["▁það", -9.100873947143555], ["▁all", -9.101181030273438], ["▁ما", -9.10376262664795], ["▁ఆ", -9.104948043823242], ["ರು", -9.105049133300781], ["ува", -9.105223655700684], ["▁ਉਨ੍ਹਾਂ", -9.105463027954102], ["是", -9.105670928955078], ["▁une", -9.108111381530762], ["द", -9.108529090881348], ["େ", -9.10867977142334], ["го", -9.109109878540039], ["ര്‍", -9.109219551086426], ["ግ", -9.109554290771484], ["▁कर", -9.1095552444458], ["ന", -9.11215877532959], ["lla", -9.112751007080078], ["▁foto", -9.11357307434082], ["ung", -9.114185333251953], ["▁go", -9.11563777923584], ["과", -9.116067886352539], ["ر", -9.11663818359375], ["ብ", -9.116941452026367], ["ı", -9.118575096130371], ["ните", -9.119071006774902], ["▁qui", -9.11948013305664], ["ਮ", -9.121204376220703], ["iti", -9.121820449829102], ["▁ad", -9.122984886169434], ["ా", -9.123147010803223], ["▁ও", -9.125075340270996], ["▁પણ", -9.126681327819824], ["ാ", -9.127845764160156], ["তে", -9.127861976623535], ["▁एक", -9.128230094909668], ["▁ن", -9.12962818145752], ["val", -9.132135391235352], ["ర", -9.132505416870117], ["η", -9.132603645324707], ["리", -9.132662773132324], ["വ", -9.135059356689453], ["▁pi", -9.136313438415527], ["ih", -9.139082908630371], ["▁aba", -9.139366149902344], ["ர", -9.139823913574219], ["zu", -9.140365600585938], ["▁που", -9.141148567199707], ["ക്ക", -9.144889831542969], ["▁የተ", -9.145060539245605], ["▁برای", -9.146327018737793], ["ud", -9.147631645202637], ["ता", -9.14792251586914], ["▁бар", -9.148900985717773], ["▁men", -9.149871826171875], ["ns", -9.150473594665527], ["ال", -9.15274715423584], ["7", -9.152800559997559], ["▁στο", -9.153153419494629], ["▁дека", -9.153922080993652], ["ረ", -9.154800415039062], ["▁can", -9.154838562011719], ["▁જ", -9.15484619140625], ["▁26", -9.155645370483398], ["ба", -9.155820846557617], ["▁είναι", -9.15661907196045], ["▁بر", -9.15733528137207], ["che", -9.159753799438477], ["ken", -9.160823822021484], ["▁अ", -9.16097640991211], ["▁وال", -9.16187858581543], ["ят", -9.163204193115234], ["▁će", -9.164463996887207], ["ो", -9.165472984313965], ["ለ", -9.167478561401367], ["▁með", -9.16754150390625], ["sse", -9.167844772338867], ["ем", -9.169057846069336], ["▁wy", -9.169171333312988], ["ली", -9.169792175292969], ["▁pu", -9.170438766479492], ["య", -9.170514106750488], ["ž", -9.170758247375488], ["nud", -9.172192573547363], ["ј", -9.172926902770996], ["ப்", -9.173261642456055], ["▁war", -9.173657417297363], ["ú", -9.174605369567871], ["▁pod", -9.175249099731445], ["▁not", -9.175743103027344], ["dan", -9.17620849609375], ["ज", -9.178442001342773], ["▁40", -9.178820610046387], ["ను", -9.179034233093262], ["▁pentru", -9.179343223571777], ["▁kuwa", -9.17935562133789], ["వ", -9.179518699645996], ["ड", -9.179706573486328], ["▁स", -9.179719924926758], ["வ", -9.18025016784668], ["으로", -9.18051528930664], ["▁ਨਹੀਂ", -9.182538032531738], ["▁28", -9.182851791381836], ["ல்", -9.18346881866455], ["ያ", -9.183719635009766], ["▁то", -9.185441017150879], ["ራ", -9.186837196350098], ["▁ਨਾਲ", -9.187044143676758], ["ais", -9.187103271484375], ["ži", -9.18818473815918], ["eg", -9.188695907592773], ["ون", -9.188874244689941], ["ும்", -9.190285682678223], ["ಕ್ಕೆ", -9.19361400604248], ["ன்", -9.194372177124023], ["▁over", -9.194379806518555], ["8", -9.194910049438477], ["▁д", -9.195013046264648], ["mas", -9.195494651794434], ["▁ab", -9.19575023651123], ["▁zi", -9.195830345153809], ["que", -9.195862770080566], ["▁раз", -9.198067665100098], ["aba", -9.198116302490234], ["ি", -9.200640678405762], ["ē", -9.202359199523926], ["▁untuk", -9.20291519165039], ["▁افغانستان", -9.203351020812988], ["mos", -9.203461647033691], ["த்த", -9.203628540039062], ["▁це", -9.203977584838867], ["ಕ", -9.204580307006836], ["ει", -9.205836296081543], ["▁care", -9.206720352172852], ["▁27", -9.206753730773926], ["▁kar", -9.20775032043457], ["ac", -9.20777702331543], ["ча", -9.207794189453125], ["ми", -9.208335876464844], ["不", -9.20844554901123], ["▁ਇਹ", -9.208450317382812], ["▁እና", -9.209242820739746], ["▁że", -9.209385871887207], ["▁전", -9.209613800048828], ["▁수", -9.209739685058594], ["해", -9.210209846496582], ["▁fel", -9.212347984313965], ["▁my", -9.21433162689209], ["ও", -9.214591026306152], ["nja", -9.21561336517334], ["▁ही", -9.215872764587402], ["че", -9.216279029846191], ["月", -9.216629028320312], ["▁ಎಂದು", -9.216657638549805], ["ys", -9.217839241027832], ["ха", -9.224781036376953], ["ana", -9.22592830657959], ["lt", -9.226554870605469], ["ab", -9.22663402557373], ["▁see", -9.227445602416992], ["▁دي", -9.227832794189453], ["了", -9.228887557983398], ["정", -9.228973388671875], ["▁ସେ", -9.229522705078125], ["▁als", -9.229718208312988], ["▁niet", -9.231374740600586], ["▁има", -9.231508255004883], ["யில்", -9.232776641845703], ["▁für", -9.233098983764648], ["▁ਚ", -9.233834266662598], ["টি", -9.233838081359863], ["ే", -9.234660148620605], ["క", -9.239351272583008], ["ነ", -9.239532470703125], ["▁sta", -9.241445541381836], ["▁мен", -9.242477416992188], ["ant", -9.243708610534668], ["ll", -9.244633674621582], ["▁ଓ", -9.24516487121582], ["نا", -9.245951652526855], ["ور", -9.24715805053711], ["▁arī", -9.247824668884277], ["ار", -9.248130798339844], ["▁لل", -9.24937629699707], ["▁uma", -9.249444007873535], ["ಸ್", -9.249883651733398], ["▁tak", -9.250676155090332], ["ган", -9.251659393310547], ["▁ju", -9.252427101135254], ["▁ఈ", -9.252775192260742], ["▁has", -9.252833366394043], ["▁пре", -9.255814552307129], ["мо", -9.25590991973877], ["▁ਲਈ", -9.257092475891113], ["ম", -9.257707595825195], ["▁для", -9.25833797454834], ["ి", -9.259231567382812], ["са", -9.259254455566406], ["▁kui", -9.259403228759766], ["वर", -9.259849548339844], ["자", -9.26219367980957], ["▁că", -9.262986183166504], ["▁ho", -9.263330459594727], ["ማ", -9.263619422912598], ["ಲ", -9.265342712402344], ["ಗಳ", -9.265355110168457], ["▁have", -9.265359878540039], ["有", -9.26601791381836], ["中", -9.266164779663086], ["▁ይ", -9.267367362976074], ["▁hy", -9.267627716064453], ["ndi", -9.267661094665527], ["sen", -9.269421577453613], ["એ", -9.270583152770996], ["▁θα", -9.271166801452637], ["nak", -9.271268844604492], ["স", -9.272048950195312], ["дар", -9.272503852844238], ["시", -9.273521423339844], ["త", -9.273597717285156], ["ী", -9.273782730102539], ["ach", -9.275594711303711], ["▁ми", -9.275641441345215], ["ಾ", -9.275724411010742], ["ክ", -9.27619743347168], ["nek", -9.27724838256836], ["▁ob", -9.278236389160156], ["▁dari", -9.278804779052734], ["▁this", -9.278982162475586], ["ز", -9.279362678527832], ["▁sie", -9.279988288879395], ["ਤ", -9.281532287597656], ["પ", -9.282485961914062], ["ден", -9.282525062561035], ["ви", -9.282602310180664], ["th", -9.282819747924805], ["▁ма", -9.283196449279785], ["tel", -9.283247947692871], ["▁οι", -9.285892486572266], ["▁је", -9.287008285522461], ["▁ଏହି", -9.287914276123047], ["ção", -9.289108276367188], ["ک", -9.289756774902344], ["▁અ", -9.289824485778809], ["রা", -9.289851188659668], ["▁હતી", -9.290040969848633], ["▁бул", -9.290189743041992], ["ല", -9.291898727416992], ["ған", -9.293898582458496], ["▁2021.", -9.29415512084961], ["चा", -9.294427871704102], ["▁dans", -9.294474601745605], ["ő", -9.295013427734375], ["by", -9.295620918273926], ["θ", -9.296497344970703], ["ಮ", -9.296671867370605], ["ν", -9.296914100646973], ["ira", -9.297550201416016], ["des", -9.29902172088623], ["▁نه", -9.299696922302246], ["ile", -9.302465438842773], ["ዋ", -9.302544593811035], ["ዎች", -9.302751541137695], ["ε", -9.30312442779541], ["▁dengan", -9.304048538208008], ["▁हो", -9.30501937866211], ["ారు", -9.306175231933594], ["▁said", -9.306572914123535], ["س", -9.306736946105957], ["ili", -9.30690860748291], ["ന്‍", -9.308065414428711], ["sha", -9.308571815490723], ["mente", -9.309263229370117], ["30", -9.309536933898926], ["▁ಆ", -9.309639930725098], ["ado", -9.311285018920898], ["ቀ", -9.311873435974121], ["ria", -9.312804222106934], ["nia", -9.313885688781738], ["上", -9.314050674438477], ["▁sve", -9.314116477966309], ["nin", -9.315377235412598], ["▁ا", -9.317620277404785], ["ં", -9.317808151245117], ["▁mar", -9.318293571472168], ["ሳ", -9.31836223602295], ["ля", -9.319599151611328], ["▁ре", -9.319791793823242], ["nde", -9.319815635681152], ["ይ", -9.3202543258667], ["ż", -9.32039737701416], ["▁στην", -9.320979118347168], ["റ", -9.3233003616333], ["cia", -9.324195861816406], ["nd", -9.32424545288086], ["த்", -9.324359893798828], ["тар", -9.32536506652832], ["ർ", -9.325896263122559], ["▁plan", -9.32628345489502], ["ās", -9.326395034790039], ["▁sono", -9.326602935791016], ["▁dr", -9.32676887512207], ["ев", -9.327607154846191], ["ți", -9.327676773071289], ["▁soo", -9.32784366607666], ["▁aus", -9.328309059143066], ["▁دی", -9.328729629516602], ["san", -9.329385757446289], ["▁dia", -9.329668998718262], ["ului", -9.330228805541992], ["▁29", -9.33063793182373], ["▁will", -9.331951141357422], ["ici", -9.331992149353027], ["ୀ", -9.332266807556152], ["ej", -9.332301139831543], ["▁como", -9.3323974609375], ["▁fyrir", -9.334293365478516], ["▁hal", -9.334637641906738], ["ski", -9.335099220275879], ["ting", -9.335158348083496], ["▁کار", -9.335187911987305], ["▁ekki", -9.337071418762207], ["த", -9.338095664978027], ["▁ба", -9.33942699432373], ["స్", -9.339492797851562], ["▁jest", -9.339899063110352], ["▁iki", -9.340270042419434], ["им", -9.340357780456543], ["ның", -9.341352462768555], ["▁uu", -9.342385292053223], ["▁ଅ", -9.344457626342773], ["ത", -9.345062255859375], ["اء", -9.346539497375488], ["▁પર", -9.346708297729492], ["ጋ", -9.346734046936035], ["op", -9.347413063049316], ["van", -9.34755802154541], ["▁ek", -9.347968101501465], ["land", -9.348262786865234], ["қа", -9.348808288574219], ["▁euro", -9.349333763122559], ["▁ti", -9.350397109985352], ["тер", -9.350954055786133], ["tes", -9.352408409118652], ["20", -9.352675437927246], ["ica", -9.354251861572266], ["nje", -9.3543701171875], ["ών", -9.354926109313965], ["▁että", -9.354942321777344], ["ம", -9.355615615844727], ["▁maar", -9.356775283813477], ["ere", -9.35707950592041], ["υ", -9.357586860656738], ["？", -9.358405113220215], ["▁bij", -9.358755111694336], ["ω", -9.358859062194824], ["ત", -9.359357833862305], ["▁કરી", -9.360198974609375], ["ей", -9.36125659942627], ["▁أن", -9.362181663513184], ["▁kuri", -9.362699508666992], ["▁করে", -9.36290168762207], ["ire", -9.363668441772461], ["tta", -9.36514663696289], ["▁مع", -9.365803718566895], ["var", -9.36709976196289], ["▁இந்த", -9.367151260375977], ["か", -9.367316246032715], ["dy", -9.36839771270752], ["ran", -9.369418144226074], ["ып", -9.36955738067627], ["ът", -9.369573593139648], ["ቱ", -9.370099067687988], ["▁пере", -9.370099067687988], ["▁lu", -9.370580673217773], ["aan", -9.371030807495117], ["▁мо", -9.371490478515625], ["ை", -9.371801376342773], ["▁car", -9.37183666229248], ["ра", -9.372245788574219], ["ци", -9.372546195983887], ["વા", -9.374205589294434], ["ram", -9.374653816223145], ["▁us", -9.375475883483887], ["▁koji", -9.375651359558105], ["▁j", -9.376079559326172], ["ି", -9.376261711120605], ["ски", -9.376572608947754], ["▁vai", -9.376887321472168], ["▁ع", -9.377958297729492], ["ब", -9.377988815307617], ["би", -9.378242492675781], ["son", -9.378580093383789], ["▁τον", -9.37935733795166], ["▁video", -9.380538940429688], ["▁те", -9.380870819091797], ["▁ക", -9.381030082702637], ["▁2019", -9.381073951721191], ["mis", -9.38226318359375], ["െ", -9.383044242858887], ["ой", -9.383859634399414], ["ট", -9.383910179138184], ["ര", -9.383930206298828], ["vad", -9.38421630859375], ["tek", -9.384326934814453], ["tra", -9.38503360748291], ["க்கு", -9.385114669799805], ["ber", -9.385377883911133], ["▁tik", -9.386808395385742], ["했다", -9.387292861938477], ["▁but", -9.387372970581055], ["년", -9.387714385986328], ["ବ", -9.38805866241455], ["ల్", -9.390371322631836], ["▁تر", -9.39148998260498], ["iz", -9.391853332519531], ["스", -9.392570495605469], ["대", -9.392654418945312], ["▁image", -9.393775939941406], ["за", -9.393953323364258], ["یم", -9.394122123718262], ["▁sport", -9.395708084106445], ["les", -9.395882606506348], ["▁жана", -9.395988464355469], ["umu", -9.396058082580566], ["कर", -9.396490097045898], ["사", -9.396681785583496], ["pu", -9.396719932556152], ["▁nije", -9.397448539733887], ["μ", -9.397640228271484], ["መ", -9.397761344909668], ["ग", -9.397978782653809], ["▁tas", -9.398463249206543], ["▁kom", -9.399706840515137], ["▁ਇੱਕ", -9.399946212768555], ["ین", -9.400954246520996], ["▁бир", -9.401702880859375], ["▁tri", -9.401775360107422], ["り", -9.401837348937988], ["ጥ", -9.40194320678711], ["▁আ", -9.402861595153809], ["▁ben", -9.404056549072266], ["є", -9.405123710632324], ["ында", -9.40558910369873], ["▁ማ", -9.4068603515625], ["▁0", -9.40728759765625], ["▁zo", -9.407439231872559], ["ła", -9.407500267028809], ["ડ", -9.40751838684082], ["ны", -9.407624244689941], ["న్", -9.408951759338379], ["▁ବି", -9.409008979797363], ["ಗಳು", -9.410177230834961], ["اد", -9.411910057067871], ["▁yra", -9.412004470825195], ["ገ", -9.412038803100586], ["▁شد", -9.413921356201172], ["▁fost", -9.414575576782227], ["ची", -9.415072441101074], ["▁word", -9.415218353271484], ["▁nog", -9.415936470031738], ["▁ons", -9.416147232055664], ["ح", -9.41724967956543], ["▁ነው", -9.417254447937012], ["出", -9.418152809143066], ["0", -9.419178009033203], ["ف", -9.419677734375], ["し", -9.419806480407715], ["▁pat", -9.420108795166016], ["ті", -9.421669960021973], ["ini", -9.423796653747559], ["ја", -9.423803329467773], ["▁kor", -9.423907279968262], ["ali", -9.424023628234863], ["ೆ", -9.424117088317871], ["તા", -9.424484252929688], ["ਣ", -9.425307273864746], ["tă", -9.426593780517578], ["▁sich", -9.427749633789062], ["ব", -9.427973747253418], ["▁pada", -9.428268432617188], ["▁nicht", -9.428821563720703], ["▁су", -9.428868293762207], ["కి", -9.429827690124512], ["▁പ", -9.429874420166016], ["▁ஆ", -9.430004119873047], ["▁न", -9.431013107299805], ["ша", -9.431414604187012], ["ate", -9.431732177734375], ["▁tur", -9.431807518005371], ["▁што", -9.4325532913208], ["▁ik", -9.433249473571777], ["ደ", -9.433477401733398], ["ى", -9.433565139770508], ["ോ", -9.433736801147461], ["▁60", -9.43424129486084], ["ç", -9.43443775177002], ["▁up", -9.434761047363281], ["▁الت", -9.435556411743164], ["▁31", -9.436234474182129], ["▁bei", -9.436479568481445], ["či", -9.437247276306152], ["fu", -9.437684059143066], ["ില്‍", -9.43862533569336], ["си", -9.438689231872559], ["▁пред", -9.43879508972168], ["ول", -9.438918113708496], ["▁δεν", -9.43905258178711], ["ин", -9.43934154510498], ["નું", -9.439611434936523], ["દ", -9.440129280090332], ["nis", -9.44117259979248], ["ଙ୍କୁ", -9.44183349609375], ["vat", -9.44243335723877], ["ło", -9.442501068115234], ["ksi", -9.443296432495117], ["▁الأ", -9.44364070892334], ["ду", -9.445947647094727], ["ам", -9.446114540100098], ["▁tot", -9.446208953857422], ["ታ", -9.447016716003418], ["▁так", -9.44721794128418], ["до", -9.447880744934082], ["વ", -9.448565483093262], ["ತ", -9.44922161102295], ["▁б", -9.450364112854004], ["▁jau", -9.450427055358887], ["▁dos", -9.450454711914062], ["се", -9.450489044189453], ["டி", -9.451478958129883], ["▁नहीं", -9.451776504516602], ["യും", -9.4518461227417], ["క్", -9.451947212219238], ["▁може", -9.452141761779785], ["ation", -9.4524564743042], ["▁ole", -9.452507972717285], ["are", -9.452555656433105], ["ટ", -9.45297908782959], ["leri", -9.453399658203125], ["len", -9.454233169555664], ["▁नाही", -9.454368591308594], ["▁auto", -9.45463752746582], ["સ", -9.45738410949707], ["▁kur", -9.458497047424316], ["ša", -9.459179878234863], ["▁wie", -9.459977149963379], ["per", -9.460016250610352], ["な", -9.460393905639648], ["fe", -9.460705757141113], ["▁ги", -9.461315155029297], ["▁plus", -9.461873054504395], ["▁ପାଇଁ", -9.462746620178223], ["ген", -9.464875221252441], ["▁માટે", -9.464969635009766], ["▁vol", -9.466667175292969], ["দ", -9.46786117553711], ["ସ", -9.467945098876953], ["uk", -9.468086242675781], ["▁tidak", -9.468120574951172], ["▁corona", -9.46822738647461], ["▁των", -9.46834659576416], ["қ", -9.468437194824219], ["ato", -9.470136642456055], ["ട", -9.471198081970215], ["lı", -9.47120475769043], ["▁hu", -9.471603393554688], ["▁না", -9.474263191223145], ["▁क", -9.474313735961914], ["ி", -9.475125312805176], ["▁इस", -9.476194381713867], ["സ", -9.477410316467285], ["த்தில்", -9.477831840515137], ["uri", -9.479653358459473], ["▁سره", -9.480067253112793], ["лі", -9.480217933654785], ["usi", -9.48098087310791], ["▁dem", -9.482172012329102], ["ಲು", -9.482961654663086], ["dos", -9.483110427856445], ["和", -9.483531951904297], ["▁što", -9.483939170837402], ["സ്", -9.48404312133789], ["ī", -9.484844207763672], ["ୁ", -9.486884117126465], ["▁film", -9.48701286315918], ["ಗ", -9.4872407913208], ["tor", -9.487787246704102], ["sel", -9.487835884094238], ["ா", -9.48797607421875], ["ప", -9.487985610961914], ["▁ame", -9.488080978393555], ["؟", -9.488836288452148], ["ত", -9.489291191101074], ["▁inter", -9.489642143249512], ["ப", -9.489693641662598], ["my", -9.489811897277832], ["ları", -9.489935874938965], ["shi", -9.490601539611816], ["ੋ", -9.490904808044434], ["cie", -9.491415977478027], ["ونه", -9.491535186767578], ["ın", -9.491541862487793], ["▁ја", -9.494863510131836], ["ፍ", -9.495407104492188], ["tak", -9.495912551879883], ["▁dalam", -9.496662139892578], ["ರ್", -9.496769905090332], ["ска", -9.496896743774414], ["ах", -9.496925354003906], ["χ", -9.497632026672363], ["тан", -9.497892379760742], ["▁net", -9.49792766571045], ["ु", -9.498613357543945], ["▁ਉਹ", -9.498799324035645], ["ego", -9.498854637145996], ["▁şi", -9.500092506408691], ["mp", -9.500615119934082], ["ك", -9.501015663146973], ["nen", -9.501619338989258], ["ले", -9.502415657043457], ["kom", -9.502965927124023], ["▁test", -9.503986358642578], ["ei", -9.50423526763916], ["ست", -9.505030632019043], ["ந்த", -9.505793571472168], ["▁ex", -9.505852699279785], ["ри", -9.506144523620605], ["ام", -9.50617790222168], ["▁sp", -9.507186889648438], ["▁eu", -9.508109092712402], ["▁dé", -9.508475303649902], ["tos", -9.508601188659668], ["▁auch", -9.508695602416992], ["по", -9.508784294128418], ["रा", -9.509066581726074], ["ija", -9.50936222076416], ["ാണ്", -9.509428024291992], ["ਟ", -9.509871482849121], ["sto", -9.510014533996582], ["▁ak", -9.510796546936035], ["▁dis", -9.511234283447266], ["اب", -9.511272430419922], ["▁sz", -9.5118989944458], ["нын", -9.512470245361328], ["▁му", -9.512567520141602], ["ков", -9.512822151184082], ["▁ആ", -9.512996673583984], ["ଟି", -9.513354301452637], ["와", -9.513421058654785], ["▁más", -9.514768600463867], ["19", -9.515168190002441], ["ton", -9.515227317810059], ["ನ್", -9.51595401763916], ["ମ", -9.516705513000488], ["ф", -9.516972541809082], ["ción", -9.517383575439453], ["ಯಲ್ಲಿ", -9.517439842224121], ["రి", -9.517662048339844], ["▁ده", -9.517865180969238], ["▁vo", -9.518399238586426], ["▁دا", -9.518453598022461], ["ਪ", -9.5191011428833], ["した", -9.52055835723877], ["▁tam", -9.520873069763184], ["▁saat", -9.521673202514648], ["ல", -9.522503852844238], ["▁ਸ", -9.522552490234375], ["ج", -9.522686004638672], ["▁hann", -9.52329158782959], ["▁ଆ", -9.523670196533203], ["ц", -9.52430248260498], ["▁એ", -9.524435997009277], ["ित", -9.525437355041504], ["▁това", -9.525901794433594], ["yi", -9.526515007019043], ["▁адам", -9.526866912841797], ["▁bar", -9.527006149291992], ["ap", -9.527523040771484], ["ض", -9.527937889099121], ["▁м", -9.528017044067383], ["ஸ்", -9.528514862060547], ["ές", -9.528624534606934], ["▁સ", -9.528838157653809], ["min", -9.530315399169922], ["▁era", -9.530356407165527], ["▁دې", -9.53057861328125], ["గ", -9.53099250793457], ["ರಿ", -9.531278610229492], ["og", -9.532384872436523], ["ás", -9.532742500305176], ["수", -9.534210205078125], ["▁ont", -9.534832954406738], ["चे", -9.534978866577148], ["án", -9.535036087036133], ["▁della", -9.537766456604004], ["ng", -9.538214683532715], ["ü", -9.53889274597168], ["ക", -9.53948974609375], ["▁ele", -9.539778709411621], ["issa", -9.540776252746582], ["দের", -9.540996551513672], ["ह", -9.541440963745117], ["ния", -9.541441917419434], ["ner", -9.542435646057129], ["▁ச", -9.542536735534668], ["rá", -9.54311466217041], ["ін", -9.54387378692627], ["ού", -9.544079780578613], ["ன", -9.544168472290039], ["ተ", -9.544201850891113], ["gar", -9.54432201385498], ["▁kun", -9.544963836669922], ["▁eine", -9.545132637023926], ["▁ili", -9.545696258544922], ["ic", -9.545880317687988], ["▁ப", -9.547331809997559], ["మ", -9.547975540161133], ["ਿਆ", -9.548251152038574], ["ዳ", -9.548641204833984], ["▁ത", -9.548995018005371], ["ня", -9.54932975769043], ["▁from", -9.549715995788574], ["る", -9.551140785217285], ["▁그", -9.552876472473145], ["்", -9.55302619934082], ["ay", -9.553267478942871], ["π", -9.553443908691406], ["▁ಕ", -9.553925514221191], ["▁இ", -9.554298400878906], ["10", -9.555159568786621], ["▁ਕਰ", -9.555205345153809], ["ത്ത", -9.555573463439941], ["ң", -9.555683135986328], ["ണ", -9.556012153625488], ["원", -9.55636978149414], ["▁she", -9.556816101074219], ["vel", -9.557085037231445], ["وا", -9.55778694152832], ["▁हे", -9.558728218078613], ["ft", -9.558987617492676], ["ες", -9.55921745300293], ["▁س", -9.559232711791992], ["▁және", -9.560192108154297], ["어", -9.560723304748535], ["▁থেকে", -9.560860633850098], ["æ", -9.561481475830078], ["▁hat", -9.56175422668457], ["isi", -9.561912536621094], ["▁یک", -9.562332153320312], ["▁க", -9.562790870666504], ["ies", -9.56319808959961], ["▁کرد", -9.56342601776123], ["장", -9.563501358032227], ["يا", -9.564009666442871], ["री", -9.564621925354004], ["ија", -9.564732551574707], ["▁ያ", -9.565133094787598], ["▁prze", -9.565418243408203], ["tal", -9.56555461883545], ["inn", -9.565888404846191], ["▁ነው።", -9.566356658935547], ["▁gar", -9.567071914672852], ["ol", -9.567937850952148], ["▁pen", -9.568055152893066], ["▁вы", -9.568404197692871], ["ного", -9.569007873535156], ["▁गया", -9.569570541381836], ["ነት", -9.569869995117188], ["ೂ", -9.570511817932129], ["▁କ", -9.570706367492676], ["▁କରି", -9.570981979370117], ["illa", -9.571535110473633], ["ೀ", -9.571771621704102], ["ବା", -9.572033882141113], ["하는", -9.57208251953125], ["iden", -9.573395729064941], ["▁आहेत", -9.575200080871582], ["aha", -9.575624465942383], ["ા", -9.57601261138916], ["く", -9.576156616210938], ["met", -9.576201438903809], ["ou", -9.576373100280762], ["▁إلى", -9.577603340148926], ["▁dal", -9.577643394470215], ["ии", -9.578083992004395], ["ー", -9.578519821166992], ["▁ie", -9.578999519348145], ["ие", -9.580018043518066], ["▁я", -9.580878257751465], ["nte", -9.581334114074707], ["▁як", -9.582694053649902], ["▁tre", -9.582743644714355], ["ona", -9.582955360412598], ["களை", -9.583065032958984], ["▁जा", -9.583185195922852], ["ία", -9.583396911621094], ["▁بال", -9.584037780761719], ["▁એક", -9.584224700927734], ["لو", -9.584866523742676], ["▁had", -9.585073471069336], ["▁ସ", -9.585345268249512], ["▁म", -9.585745811462402], ["ુ", -9.585897445678711], ["гу", -9.586041450500488], ["行", -9.586097717285156], ["ale", -9.586244583129883], ["cy", -9.586942672729492], ["▁ste", -9.58762264251709], ["ች", -9.587737083435059], ["ами", -9.587763786315918], ["ئ", -9.588205337524414], ["ger", -9.588423728942871], ["num", -9.58867073059082], ["▁ନ", -9.589598655700684], ["▁प्र", -9.590834617614746], ["స", -9.591533660888672], ["ani", -9.591836929321289], ["▁reg", -9.592994689941406], ["ರೆ", -9.593749046325684], ["▁mil", -9.59378433227539], ["ъ", -9.59382438659668], ["ari", -9.596466064453125], ["▁کرونا", -9.596590995788574], ["лық", -9.597424507141113], ["రు", -9.598712921142578], ["uje", -9.598722457885742], ["ah", -9.599026679992676], ["ン", -9.599411010742188], ["▁እ", -9.599857330322266], ["или", -9.600362777709961], ["▁ubu", -9.600555419921875], ["부", -9.60068130493164], ["▁ар", -9.600740432739258], ["nes", -9.60163688659668], ["ார்", -9.60179328918457], ["ren", -9.601956367492676], ["新", -9.601956367492676], ["▁buvo", -9.602242469787598], ["▁без", -9.602643013000488], ["è", -9.603028297424316], ["ši", -9.603818893432617], ["▁እንዲ", -9.604183197021484], ["서", -9.605093955993652], ["лар", -9.607156753540039], ["fer", -9.607357025146484], ["मध्ये", -9.609380722045898], ["ೇ", -9.610438346862793], ["ille", -9.610529899597168], ["▁α", -9.610766410827637], ["ій", -9.610817909240723], ["▁ಸ", -9.611148834228516], ["át", -9.61125373840332], ["во", -9.612505912780762], ["лер", -9.612799644470215], ["▁trump", -9.61295223236084], ["ник", -9.613139152526855], ["▁অ", -9.613944053649902], ["ುವ", -9.614314079284668], ["дин", -9.614616394042969], ["ካ", -9.615002632141113], ["▁ایران", -9.615135192871094], ["q", -9.616497039794922], ["lega", -9.616509437561035], ["नी", -9.617226600646973], ["▁ब", -9.617586135864258], ["▁હતો", -9.618085861206055], ["▁ଏକ", -9.61854362487793], ["▁ли", -9.619206428527832], ["ده", -9.619384765625], ["నే", -9.619468688964844], ["▁kā", -9.619664192199707], ["ص", -9.619699478149414], ["▁nos", -9.619781494140625], ["ét", -9.620108604431152], ["+", -9.620870590209961], ["ቅ", -9.62139892578125], ["▁kako", -9.621728897094727], ["nta", -9.622150421142578], ["ते", -9.622794151306152], ["false", -9.623748779296875], ["ونو", -9.6241455078125], ["▁35", -9.624295234680176], ["た", -9.624449729919434], ["▁hij", -9.624897956848145], ["ου", -9.625188827514648], ["ок", -9.625301361083984], ["▁लिए", -9.625664710998535], ["▁ம", -9.625704765319824], ["▁pot", -9.626867294311523], ["யை", -9.627278327941895], ["▁ou", -9.62791919708252], ["▁alle", -9.628098487854004], ["jen", -9.628273963928223], ["ण", -9.628273963928223], ["상", -9.628349304199219], ["ство", -9.628360748291016], ["bar", -9.628654479980469], ["зи", -9.629260063171387], ["ida", -9.62934398651123], ["сти", -9.629471778869629], ["▁ਅ", -9.629520416259766], ["▁rwanda", -9.630558967590332], ["▁tv", -9.630731582641602], ["ంగా", -9.63157844543457], ["kon", -9.631729125976562], ["▁само", -9.63239860534668], ["জ", -9.632558822631836], ["▁след", -9.632943153381348], ["ሩ", -9.633047103881836], ["ami", -9.633646011352539], ["▁nach", -9.634387969970703], ["യില്‍", -9.634958267211914], ["ట్", -9.635087966918945], ["ಲ್", -9.635101318359375], ["ில்", -9.636309623718262], ["▁ਹੀ", -9.636370658874512], ["ሉ", -9.63646411895752], ["ੂ", -9.636600494384766], ["elle", -9.637508392333984], ["▁oor", -9.637834548950195], ["▁they", -9.637899398803711], ["tti", -9.638020515441895], ["‌ها", -9.638367652893066], ["▁ح", -9.638949394226074], ["▁ada", -9.639208793640137], ["ଳ", -9.63929557800293], ["ಗಳನ್ನು", -9.640178680419922], ["tus", -9.640360832214355], ["▁stra", -9.64043140411377], ["▁için", -9.640453338623047], ["▁می", -9.641363143920898], ["▁nuo", -9.641737937927246], ["▁chi", -9.642657279968262], ["తో", -9.643281936645508], ["ሪ", -9.64352798461914], ["cha", -9.643750190734863], ["ਦ", -9.644645690917969], ["bra", -9.644669532775879], ["ପ", -9.645099639892578], ["ām", -9.645177841186523], ["ரி", -9.645220756530762], ["ag", -9.645898818969727], ["డ", -9.646256446838379], ["▁ama", -9.647589683532715], ["▁mes", -9.647916793823242], ["cz", -9.648324012756348], ["▁his", -9.648489952087402], ["ید", -9.648870468139648], ["iza", -9.648921966552734], ["▁fe", -9.649971961975098], ["nik", -9.650482177734375], ["že", -9.651342391967773], ["ಲಿ", -9.65162181854248], ["▁как", -9.65163803100586], ["iki", -9.652127265930176], ["▁করা", -9.652130126953125], ["ిన", -9.652347564697266], ["▁π", -9.653258323669434], ["만", -9.655324935913086], ["പ്പ", -9.655661582946777], ["ени", -9.655699729919434], ["ί", -9.655706405639648], ["į", -9.65611743927002], ["▁daar", -9.65657901763916], ["প", -9.656766891479492], ["▁বি", -9.657870292663574], ["▁президент", -9.658050537109375], ["ட", -9.658287048339844], ["ሰ", -9.659039497375488], ["्", -9.659546852111816], ["▁70", -9.65994644165039], ["▁ré", -9.660204887390137], ["das", -9.660355567932129], ["▁किया", -9.661269187927246], ["ος", -9.662073135375977], ["▁aga", -9.663037300109863], ["▁meer", -9.663150787353516], ["▁bra", -9.664605140686035], ["ги", -9.664973258972168], ["лен", -9.665116310119629], ["он", -9.665825843811035], ["生", -9.666243553161621], ["ati", -9.66798210144043], ["▁п", -9.668316841125488], ["ਜ਼", -9.668486595153809], ["्य", -9.668802261352539], ["▁τη", -9.66895580291748], ["lin", -9.66898250579834], ["▁radio", -9.669010162353516], ["▁news", -9.66936206817627], ["▁bez", -9.669421195983887], ["ez", -9.671340942382812], ["vis", -9.671698570251465], ["▁ana", -9.672155380249023], ["ట", -9.672760963439941], ["በት", -9.673357963562012], ["ым", -9.673864364624023], ["imo", -9.674357414245605], ["নি", -9.674534797668457], ["না", -9.675668716430664], ["▁kao", -9.675918579101562], ["ス", -9.676263809204102], ["ker", -9.676849365234375], ["ੀਆਂ", -9.677031517028809], ["ତ", -9.677695274353027], ["▁sto", -9.677882194519043], ["▁just", -9.678084373474121], ["ил", -9.678117752075195], ["श", -9.678247451782227], ["ذ", -9.678461074829102], ["ून", -9.678564071655273], ["ре", -9.678794860839844], ["▁г", -9.678808212280273], ["▁شوي", -9.679529190063477], ["▁ف", -9.679923057556152], ["ല്‍", -9.680168151855469], ["φ", -9.68049144744873], ["રી", -9.68156909942627], ["αν", -9.682083129882812], ["ske", -9.682280540466309], ["▁onder", -9.683369636535645], ["▁હતા", -9.683765411376953], ["ಿದೆ", -9.684176445007324], ["ப்ப", -9.684283256530762], ["ጠ", -9.684571266174316], ["ö", -9.684985160827637], ["ય", -9.685698509216309], ["ties", -9.68600845336914], ["τα", -9.687068939208984], ["▁19.", -9.688854217529297], ["▁था", -9.689168930053711], ["ү", -9.689434051513672], ["▁biden", -9.690093040466309], ["ती", -9.690143585205078], ["ard", -9.690147399902344], ["ал", -9.690187454223633], ["las", -9.690361022949219], ["▁hän", -9.690485954284668], ["▁ari", -9.690831184387207], ["ಣ", -9.691305160522461], ["mba", -9.69149112701416], ["▁ಮಾಡ", -9.692524909973145], ["▁door", -9.692715644836426], ["▁все", -9.693202018737793], ["гі", -9.693517684936523], ["ട്ട", -9.693920135498047], ["ث", -9.694792747497559], ["▁ते", -9.695219039916992], ["주", -9.695635795593262], ["κ", -9.695830345153809], ["▁تا", -9.696344375610352], ["ою", -9.69662094116211], ["▁juga", -9.697654724121094], ["mat", -9.698626518249512], ["▁عن", -9.698729515075684], ["▁ಮತ್ತು", -9.699403762817383], ["જ", -9.6994047164917], ["▁come", -9.699803352355957], ["▁gra", -9.699911117553711], ["्या", -9.700139999389648], ["ህ", -9.700618743896484], ["▁व", -9.700684547424316], ["ї", -9.70120906829834], ["▁તે", -9.701214790344238], ["ো", -9.701286315917969], ["▁oma", -9.703680992126465], ["ila", -9.704156875610352], ["▁эле", -9.70481014251709], ["tä", -9.706123352050781], ["▁hi", -9.707515716552734], ["ії", -9.707569122314453], ["▁sen", -9.708784103393555], ["ിയ", -9.708829879760742], ["kat", -9.70900821685791], ["▁ibi", -9.709148406982422], ["▁হয়েছে", -9.709259033203125], ["▁ай", -9.710586547851562], ["cht", -9.710721969604492], ["ਆਂ", -9.711554527282715], ["▁jak", -9.711706161499023], ["▁ਹੋ", -9.71178150177002], ["ባ", -9.71200180053711], ["▁umu", -9.712501525878906], ["▁બ", -9.7129545211792], ["ീ", -9.713737487792969], ["▁st", -9.716255187988281], ["▁hari", -9.71658706665039], ["ουν", -9.716764450073242], ["പ", -9.7169189453125], ["▁ପ", -9.717097282409668], ["लं", -9.718091011047363], ["ої", -9.718162536621094], ["▁ale", -9.71848201751709], ["če", -9.718659400939941], ["sin", -9.718799591064453], ["▁lui", -9.719282150268555], ["zione", -9.71990966796875], ["nom", -9.72055721282959], ["ਗ", -9.72124195098877], ["면", -9.721973419189453], ["nce", -9.722091674804688], ["യുടെ", -9.722132682800293], ["ጣ", -9.722297668457031], ["ിന്റെ", -9.72340202331543], ["mer", -9.723535537719727], ["▁80", -9.723855018615723], ["ан", -9.72419548034668], ["▁த", -9.726303100585938], ["▁он", -9.728665351867676], ["inu", -9.729147911071777], ["ਸ਼", -9.729888916015625], ["ق", -9.730198860168457], ["ଶ", -9.730951309204102], ["▁إ", -9.730986595153809], ["ಡ", -9.731700897216797], ["ғы", -9.731927871704102], ["era", -9.732784271240234], ["தி", -9.732816696166992], ["રા", -9.732934951782227], ["▁ወደ", -9.7329740524292], ["ూ", -9.733198165893555], ["▁ко", -9.73333740234375], ["tie", -9.733535766601562], ["па", -9.733827590942383], ["ron", -9.734274864196777], ["ster", -9.734580039978027], ["ட்", -9.734684944152832], ["sı", -9.735569953918457], ["্যা", -9.736095428466797], ["▁real", -9.736576080322266], ["▁కూడా", -9.736912727355957], ["tre", -9.737028121948242], ["▁smo", -9.737899780273438], ["▁min", -9.738053321838379], ["▁τους", -9.739596366882324], ["୍‌", -9.739897727966309], ["inen", -9.740324974060059], ["ル", -9.741886138916016], ["▁있다", -9.742111206054688], ["▁jaar", -9.743041038513184], ["▁तो", -9.743195533752441], ["▁qu", -9.743401527404785], ["ной", -9.743693351745605], ["jan", -9.744163513183594], ["▁spa", -9.744174003601074], ["▁ሲ", -9.744659423828125], ["kuwa", -9.74506664276123], ["ೋ", -9.745118141174316], ["sie", -9.746187210083008], ["▁ol", -9.74799919128418], ["ፈ", -9.748357772827148], ["ру", -9.748453140258789], ["ito", -9.748491287231445], ["라", -9.748716354370117], ["nyi", -9.749014854431152], ["하고", -9.74962043762207], ["▁സ", -9.750175476074219], ["ନା", -9.750273704528809], ["▁над", -9.750354766845703], ["▁સાથે", -9.750457763671875], ["লে", -9.751067161560059], ["مان", -9.751211166381836], ["▁ક", -9.751297950744629], ["▁new", -9.751903533935547], ["ро", -9.75195026397705], ["▁foi", -9.75243091583252], ["β", -9.752645492553711], ["nim", -9.752957344055176], ["kas", -9.75345516204834], ["ow", -9.753661155700684], ["▁mal", -9.754613876342773], ["▁ಮ", -9.754724502563477], ["▁प", -9.755274772644043], ["szt", -9.755364418029785], ["▁لا", -9.755837440490723], ["▁ଏ", -9.756467819213867], ["▁година", -9.756692886352539], ["ውን", -9.757357597351074], ["ಿದ್ದಾರೆ", -9.757516860961914], ["▁sin", -9.757746696472168], ["una", -9.758225440979004], ["▁volt", -9.758392333984375], ["▁bara", -9.75959587097168], ["▁бұл", -9.75971508026123], ["tud", -9.760340690612793], ["uma", -9.760431289672852], ["전", -9.760478019714355], ["ub", -9.760546684265137], ["δ", -9.761012077331543], ["▁land", -9.761102676391602], ["地", -9.761136054992676], ["č", -9.761236190795898], ["▁வி", -9.76274585723877], ["▁তিনি", -9.763716697692871], ["▁سر", -9.763955116271973], ["ства", -9.764348030090332], ["έ", -9.764456748962402], ["્યા", -9.765022277832031], ["아", -9.765702247619629], ["ಪ", -9.765848159790039], ["ତି", -9.766236305236816], ["õ", -9.766613006591797], ["▁кон", -9.767038345336914], ["▁kama", -9.767584800720215], ["▁rep", -9.76760482788086], ["ನೆ", -9.767715454101562], ["▁വി", -9.768681526184082], ["ec", -9.769302368164062], ["▁ég", -9.769569396972656], ["ling", -9.769721031188965], ["▁ग", -9.771145820617676], ["ся", -9.772424697875977], ["▁же", -9.773351669311523], ["ಸಿ", -9.773390769958496], ["だ", -9.773702621459961], ["ына", -9.773962020874023], ["前", -9.774052619934082], ["ende", -9.774169921875], ["od", -9.774194717407227], ["▁коронавирус", -9.774442672729492], ["▁हा", -9.774768829345703], ["ای", -9.774945259094238], ["▁என்று", -9.775142669677734], ["oj", -9.77525520324707], ["▁बाद", -9.776057243347168], ["▁san", -9.776166915893555], ["ido", -9.776556015014648], ["gy", -9.776854515075684], ["mbi", -9.777227401733398], ["▁ten", -9.77724552154541], ["▁ବୋଲି", -9.77778148651123], ["▁werden", -9.778021812438965], ["ţi", -9.778337478637695], ["lie", -9.778550148010254], ["▁হয়", -9.779285430908203], ["sh", -9.779768943786621], ["mar", -9.78002643585205], ["▁2018", -9.780245780944824], ["ൻ", -9.780488967895508], ["화", -9.780662536621094], ["yn", -9.781086921691895], ["15", -9.781418800354004], ["▁ati", -9.781656265258789], ["▁huo", -9.782368659973145], ["▁ਉਸ", -9.783185958862305], ["sch", -9.783723831176758], ["هم", -9.784109115600586], ["▁ile", -9.784143447875977], ["tro", -9.784157752990723], ["▁الع", -9.784957885742188], ["ته", -9.78544807434082], ["ide", -9.785927772521973], ["stu", -9.786102294921875], ["ವನ್ನು", -9.786224365234375], ["▁등", -9.78641414642334], ["ିତ", -9.786628723144531], ["▁ব", -9.787027359008789], ["▁آ", -9.78715705871582], ["ano", -9.787454605102539], ["▁nav", -9.787528991699219], ["нов", -9.787553787231445], ["ଟ", -9.787821769714355], ["▁ry", -9.788033485412598], ["ळ", -9.788480758666992], ["高", -9.788496971130371], ["▁bio", -9.788813591003418], ["ୋ", -9.788984298706055], ["une", -9.79008960723877], ["ων", -9.790199279785156], ["▁lai", -9.79030990600586], ["12", -9.790400505065918], ["ğ", -9.79089641571045], ["ala", -9.791094779968262], ["वा", -9.791328430175781], ["▁한", -9.791388511657715], ["▁akan", -9.791804313659668], ["▁45", -9.792352676391602], ["ée", -9.792415618896484], ["나", -9.792448043823242], ["▁өз", -9.793168067932129], ["▁sel", -9.793390274047852], ["cho", -9.793854713439941], ["ிய", -9.794105529785156], ["▁മ", -9.795218467712402], ["ਵ", -9.796642303466797], ["▁pār", -9.797137260437012], ["▁или", -9.797187805175781], ["▁대", -9.797808647155762], ["▁tā", -9.798123359680176], ["▁super", -9.79826831817627], ["tis", -9.798460960388184], ["гы", -9.798541069030762], ["多", -9.79897403717041], ["শ", -9.79930591583252], ["chi", -9.79948616027832], ["▁pan", -9.799796104431152], ["eri", -9.800198554992676], ["から", -9.800280570983887], ["ಡಿ", -9.800517082214355], ["▁því", -9.800588607788086], ["▁असं", -9.800599098205566], ["▁post", -9.80101203918457], ["▁ж", -9.801325798034668], ["тен", -9.801366806030273], ["▁rais", -9.801427841186523], ["jar", -9.80226993560791], ["▁už", -9.802565574645996], ["rt", -9.802788734436035], ["дын", -9.802810668945312], ["▁како", -9.803556442260742], ["ዝ", -9.804096221923828], ["▁یو", -9.80482292175293], ["ଦ", -9.805278778076172], ["ിൽ", -9.805288314819336], ["▁alla", -9.805313110351562], ["ਬ", -9.806281089782715], ["▁వి", -9.806604385375977], ["▁samo", -9.807319641113281], ["ಳ", -9.807584762573242], ["ст", -9.80787181854248], ["ద", -9.808954238891602], ["▁raz", -9.809030532836914], ["▁ка", -9.809142112731934], ["mb", -9.809221267700195], ["ગ", -9.810484886169434], ["ింది", -9.810600280761719], ["▁nel", -9.811185836791992], ["▁క", -9.811209678649902], ["mine", -9.811330795288086], ["leg", -9.811473846435547], ["▁entre", -9.812662124633789], ["▁dag", -9.81323528289795], ["heid", -9.813301086425781], ["▁200", -9.813420295715332], ["▁bre", -9.813522338867188], ["ാന്‍", -9.813722610473633], ["del", -9.813841819763184], ["会", -9.814192771911621], ["த்து", -9.814363479614258], ["▁ни", -9.815051078796387], ["ip", -9.815128326416016], ["au", -9.815144538879395], ["ian", -9.81525707244873], ["▁kata", -9.815343856811523], ["▁przy", -9.815605163574219], ["nih", -9.815896987915039], ["lor", -9.816352844238281], ["▁aki", -9.81752872467041], ["ott", -9.81779956817627], ["िक", -9.817973136901855], ["gra", -9.818119049072266], ["ных", -9.81857967376709], ["ύ", -9.818618774414062], ["ଲା", -9.81882381439209], ["▁κ", -9.818831443786621], ["té", -9.81889533996582], ["50", -9.819231033325195], ["isa", -9.820289611816406], ["kar", -9.820720672607422], ["▁ውስጥ", -9.820728302001953], ["▁بود", -9.821003913879395], ["bb", -9.821403503417969], ["rea", -9.822004318237305], ["▁ஒரு", -9.822026252746582], ["بر", -9.822124481201172], ["명", -9.822394371032715], ["sid", -9.822787284851074], ["ara", -9.82291030883789], ["▁ning", -9.823172569274902], ["▁ન", -9.824298858642578], ["▁қазақпарат", -9.824701309204102], ["ே", -9.824994087219238], ["ata", -9.825106620788574], ["▁бол", -9.825282096862793], ["τ", -9.825915336608887], ["▁ج", -9.826946258544922], ["▁anche", -9.826990127563477], ["할", -9.827197074890137], ["▁ప", -9.827766418457031], ["ச", -9.828118324279785], ["▁tersebut", -9.828158378601074], ["పై", -9.82839584350586], ["gal", -9.829079627990723], ["σ", -9.829355239868164], ["use", -9.829595565795898], ["▁har", -9.829689025878906], ["لي", -9.83037281036377], ["▁ਸਨ", -9.83204174041748], ["▁000", -9.832168579101562], ["dz", -9.832432746887207], ["дер", -9.83302116394043], ["▁ਪਰ", -9.833234786987305], ["су", -9.83329963684082], ["や", -9.833313941955566], ["です", -9.833650588989258], ["రా", -9.833869934082031], ["ವಾಗಿ", -9.83431625366211], ["ફ", -9.834370613098145], ["▁यांनी", -9.834442138671875], ["▁fer", -9.834733009338379], ["▁toe", -9.834768295288086], ["ang", -9.83521842956543], ["nar", -9.836326599121094], ["▁está", -9.836485862731934], ["▁ਪ", -9.83658504486084], ["き", -9.836671829223633], ["▁media", -9.836817741394043], ["ற", -9.836834907531738], ["ಂ", -9.836980819702148], ["शी", -9.838644981384277], ["ቃ", -9.839221000671387], ["▁ሰዎች", -9.84043025970459], ["aal", -9.840595245361328], ["▁τις", -9.84167194366455], ["▁þetta", -9.841756820678711], ["▁loo", -9.841833114624023], ["▁سال", -9.841937065124512], ["▁myös", -9.841952323913574], ["▁ਗਿਆ", -9.842514038085938], ["▁sind", -9.842656135559082], ["▁gan", -9.842914581298828], ["cs", -9.843027114868164], ["▁out", -9.844099998474121], ["ê", -9.844120025634766], ["tik", -9.844130516052246], ["▁lagu", -9.844181060791016], ["▁über", -9.844433784484863], ["ତା", -9.845654487609863], ["യാണ്", -9.846635818481445], ["▁ш", -9.847469329833984], ["▁eru", -9.848274230957031], ["ിക്ക", -9.848459243774414], ["gel", -9.848938941955566], ["вер", -9.849710464477539], ["ить", -9.849824905395508], ["▁90", -9.850903511047363], ["▁nas", -9.851211547851562], ["▁три", -9.851290702819824], ["▁പ്ര", -9.851419448852539], ["stra", -9.852325439453125], ["市", -9.852616310119629], ["力", -9.8532075881958], ["اً", -9.85357666015625], ["ହ", -9.853689193725586], ["▁ر", -9.854180335998535], ["▁hulle", -9.854400634765625], ["▁hefur", -9.854677200317383], ["ਡ", -9.8550386428833], ["家", -9.855230331420898], ["γ", -9.855708122253418], ["▁ش", -9.855770111083984], ["소", -9.85641860961914], ["▁bija", -9.856675148010254], ["▁деген", -9.857010841369629], ["tele", -9.857343673706055], ["ться", -9.857597351074219], ["های", -9.857625961303711], ["dir", -9.858522415161133], ["ii", -9.858697891235352], ["ሮ", -9.85916519165039], ["తి", -9.859170913696289], ["▁sau", -9.859333038330078], ["će", -9.85997200012207], ["▁ମଧ୍ୟ", -9.860114097595215], ["kt", -9.860128402709961], ["ಟ", -9.86058235168457], ["下", -9.860633850097656], ["▁এক", -9.860638618469238], ["్", -9.86110782623291], ["oje", -9.861217498779297], ["▁mir", -9.861556053161621], ["▁one", -9.862364768981934], ["▁бір", -9.863198280334473], ["▁ger", -9.863761901855469], ["ାଇ", -9.863818168640137], ["구", -9.863858222961426], ["▁kr", -9.864774703979492], ["tri", -9.864799499511719], ["one", -9.864943504333496], ["vol", -9.865110397338867], ["▁kes", -9.865123748779297], ["▁wi", -9.86518669128418], ["▁cre", -9.865636825561523], ["een", -9.865734100341797], ["jas", -9.865833282470703], ["ση", -9.865833282470703], ["▁керек", -9.865996360778809], ["ff", -9.866096496582031], ["tori", -9.866189956665039], ["▁آن", -9.866247177124023], ["ળ", -9.867212295532227], ["ما", -9.867951393127441], ["▁bal", -9.868438720703125], ["▁үй", -9.868611335754395], ["▁waar", -9.869391441345215], ["▁yo", -9.869531631469727], ["ova", -9.869674682617188], ["▁program", -9.871160507202148], ["tt", -9.872344017028809], ["▁kal", -9.873971939086914], ["іп", -9.874225616455078], ["গ", -9.875140190124512], ["cer", -9.876444816589355], ["▁jou", -9.876564979553223], ["ise", -9.876617431640625], ["wo", -9.877097129821777], ["maan", -9.877117156982422], ["mus", -9.877774238586426], ["फ", -9.877974510192871], ["▁під", -9.878114700317383], ["par", -9.878119468688965], ["ቶ", -9.878191947937012], ["▁এই", -9.878864288330078], ["یت", -9.878921508789062], ["▁pela", -9.878996849060059], ["제", -9.879109382629395], ["ै", -9.879471778869629], ["▁more", -9.879833221435547], ["ett", -9.88022518157959], ["ங்க", -9.880577087402344], ["11", -9.881009101867676], ["oni", -9.881446838378906], ["する", -9.881535530090332], ["▁би", -9.881580352783203], ["▁આવી", -9.881608009338379], ["ার", -9.882229804992676], ["▁+", -9.882238388061523], ["ika", -9.882728576660156], ["ρα", -9.882737159729004], ["▁wana", -9.883273124694824], ["εί", -9.883785247802734], ["чу", -9.884354591369629], ["ði", -9.88474178314209], ["qui", -9.884772300720215], ["غ", -9.884930610656738], ["▁خ", -9.885000228881836], ["▁προ", -9.885091781616211], ["ey", -9.885650634765625], ["taka", -9.885868072509766], ["nut", -9.886296272277832], ["ۍ", -9.886358261108398], ["ಕ್", -9.886370658874512], ["gr", -9.886481285095215], ["ings", -9.886530876159668], ["ний", -9.887175559997559], ["ë", -9.887727737426758], ["nti", -9.887781143188477], ["же", -9.887938499450684], ["ure", -9.888508796691895], ["▁شده", -9.888681411743164], ["ame", -9.889294624328613], ["তা", -9.889363288879395], ["▁32", -9.890214920043945], ["▁pasi", -9.890602111816406], ["▁jos", -9.891458511352539], ["▁ପ୍ର", -9.891658782958984], ["taan", -9.891792297363281], ["ડી", -9.891854286193848], ["▁veel", -9.891876220703125], ["ės", -9.893237113952637], ["▁sunt", -9.893989562988281], ["lja", -9.894143104553223], ["सी", -9.894309043884277], ["て", -9.894420623779297], ["மாக", -9.894556999206543], ["ep", -9.894692420959473], ["ње", -9.895604133605957], ["nk", -9.895609855651855], ["▁कोरोना", -9.897738456726074], ["▁હતું", -9.897850036621094], ["வி", -9.898026466369629], ["▁been", -9.89810848236084], ["gan", -9.898381233215332], ["▁વ", -9.89958381652832], ["▁hiyo", -9.899999618530273], ["બ", -9.900262832641602], ["월", -9.900849342346191], ["▁voi", -9.900883674621582], ["▁స", -9.900927543640137], ["▁ಹ", -9.901209831237793], ["vin", -9.901391983032227], ["▁már", -9.901434898376465], ["▁ጋር", -9.901568412780762], ["dar", -9.901732444763184], ["चं", -9.902029037475586], ["▁가", -9.9026517868042], ["бо", -9.903069496154785], ["лу", -9.903274536132812], ["▁pos", -9.903424263000488], ["ുന്ന", -9.903692245483398], ["лык", -9.903816223144531], ["▁αν", -9.905044555664062], ["▁fin", -9.905312538146973], ["сын", -9.90585708618164], ["бу", -9.906566619873047], ["▁δια", -9.906834602355957], ["tura", -9.907076835632324], ["sko", -9.907171249389648], ["ный", -9.90788745880127], ["ரா", -9.908198356628418], ["лік", -9.908221244812012], ["ș", -9.908246994018555], ["tse", -9.909847259521484], ["▁ഒരു", -9.91032886505127], ["ശ", -9.910904884338379], ["ál", -9.911969184875488], ["িক", -9.912145614624023], ["ast", -9.912161827087402], ["▁haar", -9.912266731262207], ["મા", -9.912272453308105], ["▁жылы", -9.912294387817383], ["▁ନେଇ", -9.912572860717773], ["ਰੀ", -9.914270401000977], ["ंड", -9.914719581604004], ["▁ପରେ", -9.915030479431152], ["▁тоа", -9.915291786193848], ["▁parte", -9.916237831115723], ["▁kai", -9.916394233703613], ["ris", -9.9164400100708], ["진", -9.916853904724121], ["보", -9.917381286621094], ["በ", -9.917481422424316], ["▁ह", -9.91820240020752], ["▁nous", -9.918315887451172], ["ಹ", -9.9183349609375], ["pan", -9.919169425964355], ["ves", -9.919209480285645], ["ras", -9.919684410095215], ["uka", -9.920080184936523], ["▁మ", -9.920109748840332], ["▁गई", -9.921375274658203], ["ଲି", -9.921380996704102], ["ني", -9.921753883361816], ["வை", -9.921793937683105], ["▁મ", -9.923018455505371], ["成", -9.923497200012207], ["▁ഇ", -9.923541069030762], ["ಿದ್ದ", -9.923811912536621], ["sku", -9.923909187316895], ["tay", -9.924169540405273], ["nog", -9.92443561553955], ["▁vya", -9.924986839294434], ["▁δ", -9.925026893615723], ["▁ବା", -9.92546558380127], ["▁kandi", -9.92547607421875], ["▁প্র", -9.92613697052002], ["▁бо", -9.928242683410645], ["ଗ", -9.929281234741211], ["▁ανα", -9.930374145507812], ["ão", -9.930463790893555], ["vor", -9.930941581726074], ["▁medi", -9.9309720993042], ["하", -9.931327819824219], ["▁지", -9.931341171264648], ["tte", -9.93139934539795], ["▁hor", -9.931504249572754], ["ود", -9.931774139404297], ["وم", -9.932560920715332], ["ਜ", -9.932977676391602], ["ив", -9.933572769165039], ["▁می‌", -9.933573722839355], ["▁қа", -9.93364143371582], ["ją", -9.933822631835938], ["ख", -9.934187889099121], ["▁frá", -9.934200286865234], ["ui", -9.934239387512207], ["▁ప్ర", -9.93445110321045], ["ള", -9.934718132019043], ["த்தை", -9.934920310974121], ["▁ਕੀਤਾ", -9.93570613861084], ["▁это", -9.9359769821167], ["▁mag", -9.936564445495605], ["▁पण", -9.936580657958984], ["టి", -9.936609268188477], ["يد", -9.9367036819458], ["▁bus", -9.93692398071289], ["थ", -9.93701457977295], ["▁star", -9.937336921691895], ["▁він", -9.937507629394531], ["ит", -9.937566757202148], ["ଥିଲେ", -9.937592506408691], ["▁vis", -9.937692642211914], ["▁pla", -9.938335418701172], ["னர்", -9.9384183883667], ["▁ସହ", -9.939370155334473], ["res", -9.939504623413086], ["му", -9.939764976501465], ["bri", -9.939826011657715], ["ത്തില്‍", -9.9401273727417], ["hat", -9.940167427062988], ["kur", -9.940377235412598], ["▁eftir", -9.940604209899902], ["▁یې", -9.941210746765137], ["▁στη", -9.941664695739746], ["▁moet", -9.942342758178711], ["ley", -9.94244384765625], ["का", -9.942797660827637], ["ጭ", -9.943001747131348], ["▁مو", -9.943156242370605], ["à", -9.94384479522705], ["▁ngo", -9.943870544433594], ["ség", -9.944432258605957], ["▁वि", -9.944451332092285], ["▁ज", -9.944462776184082], ["rus", -9.944703102111816], ["unk", -9.944905281066895], ["ወ", -9.945280075073242], ["வு", -9.945840835571289], ["▁most", -9.945940971374512], ["ман", -9.946090698242188], ["▁па", -9.9467134475708], ["▁ತ", -9.946739196777344], ["റ്റ", -9.946757316589355], ["▁who", -9.94676685333252], ["▁им", -9.946949005126953], ["▁facebook", -9.947246551513672], ["▁باید", -9.947542190551758], ["▁እንደሚ", -9.947602272033691], ["▁virus", -9.947953224182129], ["ది", -9.948453903198242], ["ura", -9.948843955993652], ["rie", -9.949191093444824], ["ாக", -9.950366973876953], ["ରା", -9.950655937194824], ["ώ", -9.951105117797852], ["ക്ക്", -9.951147079467773], ["iga", -9.951200485229492], ["▁роз", -9.951469421386719], ["lich", -9.951688766479492], ["ಾಗ", -9.951701164245605], ["ły", -9.9521484375], ["ଣ", -9.952204704284668], ["ಯನ್ನು", -9.952924728393555], ["ّ", -9.952950477600098], ["▁ଏବଂ", -9.95332145690918], ["▁eesti", -9.953390121459961], ["▁kap", -9.953457832336426], ["ted", -9.954180717468262], ["時", -9.954497337341309], ["▁leik", -9.954632759094238], ["ፋ", -9.954962730407715], ["▁jā", -9.955055236816406], ["usta", -9.955204963684082], ["ве", -9.955348014831543], ["ਤਾ", -9.955638885498047], ["▁ent", -9.95577335357666], ["tul", -9.956069946289062], ["▁bw", -9.956533432006836], ["ams", -9.95665168762207], ["ρ", -9.957883834838867], ["ሌ", -9.958436012268066], ["ിച്ച", -9.958622932434082], ["nder", -9.959324836730957], ["▁contra", -9.959359169006348], ["▁беше", -9.959626197814941], ["zen", -9.960665702819824], ["▁usa", -9.960864067077637], ["▁esta", -9.961042404174805], ["▁res", -9.961153030395508], ["치", -9.96133804321289], ["lık", -9.961450576782227], ["tā", -9.961601257324219], ["▁bur", -9.962396621704102], ["ண", -9.962747573852539], ["ణ", -9.963309288024902], ["▁naj", -9.963321685791016], ["▁mor", -9.963461875915527], ["▁biti", -9.963573455810547], ["▁anti", -9.963956832885742], ["▁বা", -9.96462631225586], ["▁final", -9.964730262756348], ["▁உ", -9.96506118774414], ["▁तर", -9.965570449829102], ["▁pun", -9.965639114379883], ["ګ", -9.965672492980957], ["gg", -9.965807914733887], ["▁gre", -9.96652889251709], ["nas", -9.966602325439453], ["▁han", -9.966861724853516], ["本", -9.967184066772461], ["ಿಸ", -9.967496871948242], ["▁त्या", -9.968474388122559], ["ଛି", -9.968477249145508], ["ങ്ങള്‍", -9.968945503234863], ["них", -9.96921443939209], ["▁sk", -9.969341278076172], ["方", -9.96939468383789], ["▁ó", -9.96949577331543], ["ова", -9.969962120056152], ["ių", -9.97019100189209], ["ছে", -9.9706392288208], ["ити", -9.970754623413086], ["ਿ", -9.97126579284668], ["nika", -9.971420288085938], ["▁segir", -9.971901893615723], ["وي", -9.971993446350098], ["ира", -9.97209644317627], ["▁bisa", -9.972323417663574], ["▁līdz", -9.9723539352417], ["taa", -9.972424507141113], ["▁सरकार", -9.972860336303711], ["ής", -9.973064422607422], ["드", -9.973138809204102], ["▁وي", -9.973214149475098], ["یه", -9.973304748535156], ["red", -9.973536491394043], ["amente", -9.973634719848633], ["▁ବ", -9.973774909973145], ["ор", -9.973878860473633], ["her", -9.974082946777344], ["let", -9.97425651550293], ["ら", -9.974361419677734], ["▁gali", -9.974407196044922], ["이다", -9.974653244018555], ["ym", -9.97511100769043], ["▁2020.", -9.975625038146973], ["ాయి", -9.97671127319336], ["μα", -9.976902961730957], ["▁ਕੇ", -9.977188110351562], ["▁নিয়ে", -9.977291107177734], ["can", -9.977585792541504], ["▁ਆ", -9.978404998779297], ["▁twee", -9.978415489196777], ["શ", -9.978497505187988], ["▁500", -9.978715896606445], ["▁also", -9.978948593139648], ["▁επι", -9.97922420501709], ["â", -9.979243278503418], ["uta", -9.979463577270508], ["▁पा", -9.980051040649414], ["▁என", -9.980398178100586], ["пи", -9.980754852294922], ["▁중", -9.98084545135498], ["▁your", -9.98085880279541], ["ட்ட", -9.980879783630371], ["વી", -9.98100757598877], ["િ", -9.98197078704834], ["dra", -9.982059478759766], ["cis", -9.982316970825195], ["▁خو", -9.98251724243164], ["сь", -9.982970237731934], ["入", -9.983024597167969], ["্য", -9.983601570129395], ["sins", -9.983787536621094], ["ser", -9.984048843383789], ["▁sobre", -9.98414134979248], ["يل", -9.984299659729004], ["▁put", -9.98441219329834], ["▁pak", -9.985114097595215], ["▁স", -9.985236167907715], ["از", -9.9862699508667], ["▁인", -9.986331939697266], ["kor", -9.986394882202148], ["▁tan", -9.986716270446777], ["nos", -9.986739158630371], ["▁суд", -9.986780166625977], ["ому", -9.986812591552734], ["isti", -9.987008094787598], ["▁sch", -9.988129615783691], ["▁kra", -9.988386154174805], ["ens", -9.989075660705566], ["ща", -9.991065979003906], ["▁vel", -9.991239547729492], ["ું", -9.991323471069336], ["én", -9.991720199584961], ["▁comp", -9.992474555969238], ["동", -9.992669105529785], ["ቡ", -9.992912292480469], ["▁بعد", -9.993175506591797], ["▁нас", -9.993589401245117], ["▁نا", -9.993622779846191], ["▁보", -9.993752479553223], ["▁cy", -9.993828773498535], ["▁ମ", -9.993992805480957], ["▁top", -9.994027137756348], ["zer", -9.9942045211792], ["▁naar", -9.99502944946289], ["▁김", -9.995096206665039], ["▁33", -9.995121002197266], ["▁دو", -9.995182991027832], ["▁fram", -9.99522590637207], ["car", -9.995342254638672], ["▁일", -9.995377540588379], ["king", -9.995443344116211], ["▁sul", -9.995447158813477], ["యా", -9.995650291442871], ["ኑ", -9.995847702026367], ["ଲେ", -9.996038436889648], ["িত", -9.996116638183594], ["ći", -9.996208190917969], ["▁caption", -9.996319770812988], ["▁heeft", -9.996402740478516], ["tto", -9.99641227722168], ["▁ima", -9.996421813964844], ["ül", -9.99681282043457], ["▁ఇ", -9.997084617614746], ["세", -9.997137069702148], ["▁ಎ", -9.997297286987305], ["ско", -9.997332572937012], ["▁kwi", -9.997551918029785], ["▁ότι", -9.99756908416748], ["ਰਾ", -9.997644424438477], ["25", -9.99797248840332], ["ሊ", -9.997980117797852], ["部", -9.998028755187988], ["성", -9.998321533203125], ["▁көп", -9.998418807983398], ["lé", -9.998435974121094], ["▁kaip", -9.998659133911133], ["2021", -9.998665809631348], ["▁kita", -9.999116897583008], ["子", -9.999445915222168], ["▁وت", -10.000263214111328], ["cio", -10.000301361083984], ["ex", -10.000469207763672], ["ੁ", -10.000511169433594], ["ச்", -10.000570297241211], ["nga", -10.000627517700195], ["▁kre", -10.000690460205078], ["inta", -10.000710487365723], ["رس", -10.001289367675781], ["▁काही", -10.001468658447266], ["ados", -10.001653671264648], ["ਾਈ", -10.00202465057373], ["▁cor", -10.00284481048584], ["ತಿ", -10.003023147583008], ["nye", -10.003349304199219], ["者", -10.003368377685547], ["▁rad", -10.003678321838379], ["▁bor", -10.004057884216309], ["▁боюнча", -10.004204750061035], ["▁sha", -10.004311561584473], ["୍ୟ", -10.004326820373535], ["ستان", -10.00439453125], ["mbo", -10.005716323852539], ["ante", -10.005913734436035], ["▁più", -10.00592041015625], ["sho", -10.005952835083008], ["▁साथ", -10.006160736083984], ["mit", -10.006176948547363], ["▁жыл", -10.00627326965332], ["ps", -10.007033348083496], ["wan", -10.00709342956543], ["്‍", -10.007719039916992], ["rd", -10.007816314697266], ["▁기", -10.008650779724121], ["ടി", -10.008880615234375], ["લી", -10.00922966003418], ["▁sama", -10.009265899658203], ["▁افغان", -10.009328842163086], ["▁nor", -10.009559631347656], ["▁বলেন", -10.010821342468262], ["ms", -10.01097297668457], ["رو", -10.011381149291992], ["▁sus", -10.011519432067871], ["▁mukaan", -10.01152229309082], ["ನಿ", -10.011825561523438], ["হ", -10.012258529663086], ["ement", -10.012434959411621], ["ување", -10.012438774108887], ["gur", -10.012446403503418], ["▁korona", -10.013051986694336], ["ણ", -10.013537406921387], ["▁dėl", -10.01456069946289], ["▁જે", -10.015155792236328], ["▁হবে", -10.015295028686523], ["ଷ୍ଟ", -10.01540470123291], ["▁afrika", -10.017521858215332], ["نه", -10.017711639404297], ["▁غ", -10.017733573913574], ["ś", -10.01782512664795], ["▁via", -10.018187522888184], ["ૂ", -10.018250465393066], ["ier", -10.018317222595215], ["▁ని", -10.018365859985352], ["ाई", -10.018370628356934], ["lä", -10.018377304077148], ["▁tem", -10.018439292907715], ["rs", -10.019309997558594], ["▁তার", -10.01945686340332], ["▁gol", -10.019506454467773], ["▁ಬ", -10.019639015197754], ["分", -10.019700050354004], ["▁କରୋନା", -10.019891738891602], ["pen", -10.01991081237793], ["▁wel", -10.019932746887207], ["▁út", -10.019990921020508], ["▁న", -10.020371437072754], ["▁وی", -10.02048110961914], ["▁ez", -10.020670890808105], ["▁há", -10.020718574523926], ["▁ম", -10.02136516571045], ["▁çok", -10.021849632263184], ["▁정", -10.021856307983398], ["ിന്", -10.021864891052246], ["ଜ", -10.02233600616455], ["зна", -10.022666931152344], ["dik", -10.022781372070312], ["▁най", -10.023393630981445], ["mbu", -10.023592948913574], ["▁ಪ", -10.024081230163574], ["sal", -10.024356842041016], ["ସି", -10.024500846862793], ["ці", -10.025002479553223], ["▁ਕ", -10.025104522705078], ["▁주", -10.025137901306152], ["tų", -10.025325775146484], ["▁सा", -10.025351524353027], ["vers", -10.025467872619629], ["▁रहे", -10.025832176208496], ["▁2017", -10.02706527709961], ["▁kami", -10.027196884155273], ["▁पुलिस", -10.02734088897705], ["ход", -10.027740478515625], ["ري", -10.027974128723145], ["▁በመ", -10.028432846069336], ["▁upp", -10.028554916381836], ["お", -10.029068946838379], ["당", -10.029382705688477], ["到", -10.029495239257812], ["sson", -10.029728889465332], ["ses", -10.030285835266113], ["▁నుంచి", -10.030488014221191], ["▁kri", -10.030547142028809], ["国", -10.031200408935547], ["mek", -10.031669616699219], ["야", -10.032649040222168], ["▁той", -10.033238410949707], ["化", -10.033284187316895], ["লা", -10.033307075500488], ["ča", -10.033400535583496], ["▁sai", -10.033467292785645], ["ായി", -10.033597946166992], ["ሙ", -10.033770561218262], ["▁pret", -10.03426742553711], ["▁امریکا", -10.034512519836426], ["▁saa", -10.034661293029785], ["ించ", -10.035378456115723], ["ови", -10.03558349609375], ["▁होती", -10.036023139953613], ["nä", -10.036478996276855], ["ена", -10.036539077758789], ["af", -10.036715507507324], ["▁sé", -10.037001609802246], ["ଏ", -10.037101745605469], ["▁طالبانو", -10.03878116607666], ["▁savo", -10.039336204528809], ["tin", -10.039517402648926], ["ાઈ", -10.039589881896973], ["ీ", -10.039772033691406], ["ರಾ", -10.040067672729492], ["▁жол", -10.0402250289917], ["▁ਤਾਂ", -10.040724754333496], ["став", -10.041544914245605], ["ൂ", -10.041627883911133], ["▁cer", -10.041703224182129], ["▁ime", -10.041988372802734], ["계", -10.041999816894531], ["▁wir", -10.042076110839844], ["イ", -10.04576587677002], ["▁т", -10.045915603637695], ["▁ме", -10.046242713928223], ["▁ата", -10.046248435974121], ["▁pres", -10.0466947555542], ["定", -10.04689884185791], ["▁પોલીસ", -10.047148704528809], ["র্", -10.047223091125488], ["▁premier", -10.047310829162598], ["▁ನ", -10.048327445983887], ["▁far", -10.048371315002441], ["ар", -10.04841423034668], ["▁kuba", -10.048702239990234], ["▁ک", -10.049004554748535], ["게", -10.049256324768066], ["▁sont", -10.049394607543945], ["▁gaan", -10.049511909484863], ["▁እንደ", -10.05041217803955], ["▁கொரோனா", -10.050577163696289], ["▁तक", -10.050678253173828], ["▁br", -10.05111312866211], ["▁काम", -10.051484107971191], ["▁cap", -10.05153751373291], ["sp", -10.051989555358887], ["ଇ", -10.052132606506348], ["▁також", -10.05213451385498], ["▁sil", -10.052313804626465], ["▁zna", -10.052347183227539], ["ста", -10.052733421325684], ["40", -10.052950859069824], ["▁tek", -10.053149223327637], ["ਨਾ", -10.053886413574219], ["▁worden", -10.054245948791504], ["ros", -10.05447006225586], ["▁proc", -10.054803848266602], ["сто", -10.0551118850708], ["ط", -10.055127143859863], ["▁š", -10.055312156677246], ["▁cel", -10.055461883544922], ["rin", -10.056961059570312], ["▁ai", -10.05770206451416], ["▁või", -10.057788848876953], ["رب", -10.058012008666992], ["ਹ", -10.05871295928955], ["▁34", -10.05891227722168], ["mak", -10.059395790100098], ["▁στα", -10.05963134765625], ["▁συν", -10.059696197509766], ["▁moment", -10.059765815734863], ["▁ਮ", -10.0598783493042], ["▁there", -10.059981346130371], ["ér", -10.060110092163086], ["▁hier", -10.06049633026123], ["ഹ", -10.060724258422852], ["ning", -10.061458587646484], ["▁twitter", -10.061710357666016], ["▁bila", -10.062363624572754], ["ding", -10.062541007995605], ["▁više", -10.062723159790039], ["ೊ", -10.06277847290039], ["யாக", -10.063196182250977], ["▁gli", -10.063211441040039], ["▁کشور", -10.063263893127441], ["▁avec", -10.063265800476074], ["▁tal", -10.063549041748047], ["▁hand", -10.06368637084961], ["ert", -10.063831329345703], ["▁ഈ", -10.06386947631836], ["pri", -10.064172744750977], ["事", -10.06470012664795], ["ža", -10.065845489501953], ["лы", -10.066008567810059], ["ός", -10.066102981567383], ["pro", -10.06656265258789], ["▁pia", -10.06658935546875], ["ध", -10.066706657409668], ["▁x", -10.066890716552734], ["nn", -10.067132949829102], ["▁hafa", -10.067269325256348], ["ಟ್", -10.067529678344727], ["▁problem", -10.067645072937012], ["う", -10.067687034606934], ["▁ਕਿਹਾ", -10.067960739135742], ["eni", -10.068011283874512], ["ઓ", -10.068394660949707], ["ust", -10.0684175491333], ["ces", -10.06863021850586], ["ер", -10.069437980651855], ["ката", -10.069579124450684], ["▁شي", -10.070006370544434], ["▁their", -10.070450782775879], ["mal", -10.070577621459961], ["▁എന്ന", -10.071145057678223], ["▁pēc", -10.07154655456543], ["▁э", -10.071637153625488], ["mme", -10.07170581817627], ["▁ਰਹੇ", -10.071765899658203], ["った", -10.071789741516113], ["من", -10.072066307067871], ["மை", -10.072317123413086], ["▁mon", -10.072514533996582], ["▁પ્ર", -10.072624206542969], ["چ", -10.072710037231445], ["rat", -10.074216842651367], ["▁pal", -10.07437801361084], ["ீ", -10.074604034423828], ["ū", -10.075030326843262], ["▁나", -10.075041770935059], ["▁godine", -10.075048446655273], ["ില്ല", -10.075118064880371], ["లి", -10.075345993041992], ["gt", -10.075346946716309], ["▁instagram", -10.075737953186035], ["▁ди", -10.075776100158691], ["▁get", -10.07585620880127], ["▁36", -10.075915336608887], ["hr", -10.07610034942627], ["pl", -10.07651138305664], ["ੈ", -10.076617240905762], ["▁होता", -10.077011108398438], ["ity", -10.077313423156738], ["▁الن", -10.077664375305176], ["ない", -10.078033447265625], ["▁ovat", -10.07815933227539], ["▁σ", -10.078520774841309], ["▁red", -10.078750610351562], ["മായ", -10.078842163085938], ["ल्या", -10.079761505126953], ["ното", -10.080458641052246], ["ав", -10.080693244934082], ["ić", -10.080994606018066], ["یر", -10.081267356872559], ["▁roz", -10.081557273864746], ["હ", -10.081694602966309], ["▁apie", -10.081880569458008], ["24", -10.082867622375488], ["kel", -10.083017349243164], ["▁orang", -10.083879470825195], ["▁volgens", -10.084320068359375], ["isha", -10.084419250488281], ["ચ", -10.084539413452148], ["▁ਕਰਨ", -10.084680557250977], ["▁কা", -10.0847806930542], ["mise", -10.085005760192871], ["▁કરવામાં", -10.085102081298828], ["ća", -10.085126876831055], ["able", -10.0853853225708], ["ୟ", -10.086016654968262], ["▁сша", -10.086616516113281], ["ಿಗೆ", -10.087095260620117], ["▁내", -10.087190628051758], ["ዘ", -10.087384223937988], ["▁rus", -10.087430953979492], ["▁sub", -10.087479591369629], ["ky", -10.08791446685791], ["ಿರುವ", -10.088716506958008], ["▁bol", -10.089346885681152], ["ായ", -10.089520454406738], ["ਦਾ", -10.089908599853516], ["нь", -10.090158462524414], ["▁2022", -10.091480255126953], ["▁minister", -10.091532707214355], ["▁द", -10.09213638305664], ["vas", -10.09228229522705], ["tions", -10.092490196228027], ["▁taip", -10.092629432678223], ["ాల", -10.092813491821289], ["ши", -10.093153953552246], ["hin", -10.093182563781738], ["mes", -10.093374252319336], ["▁about", -10.094122886657715], ["hen", -10.094193458557129], ["▁people", -10.094451904296875], ["▁মা", -10.09480094909668], ["िंग", -10.094853401184082], ["▁verið", -10.094961166381836], ["дық", -10.095325469970703], ["ቶች", -10.095394134521484], ["▁bis", -10.095775604248047], ["ion", -10.096138954162598], ["▁але", -10.096190452575684], ["ਲੀ", -10.096407890319824], ["ப்பு", -10.096416473388672], ["▁gr", -10.097001075744629], ["長", -10.097092628479004], ["▁cya", -10.097115516662598], ["来", -10.098062515258789], ["▁유", -10.098093032836914], ["▁च", -10.09843635559082], ["્", -10.098730087280273], ["▁gal", -10.09908390045166], ["ese", -10.09936809539795], ["న్న", -10.099872589111328], ["▁સા", -10.100137710571289], ["nın", -10.100249290466309], ["tó", -10.100470542907715], ["21", -10.100480079650879], ["că", -10.100793838500977], ["▁съ", -10.100897789001465], ["▁été", -10.10091781616211], ["സി", -10.100966453552246], ["▁weer", -10.101034164428711], ["ður", -10.101142883300781], ["തി", -10.10119342803955], ["line", -10.10128116607666], ["▁ugu", -10.101644515991211], ["위", -10.10191535949707], ["▁ich", -10.102073669433594], ["sten", -10.10207748413086], ["▁kara", -10.102100372314453], ["▁ଏହା", -10.102218627929688], ["▁خود", -10.10287857055664], ["▁لم", -10.103058815002441], ["▁नि", -10.103071212768555], ["лов", -10.103171348571777], ["ాలు", -10.103824615478516], ["cije", -10.103870391845703], ["मा", -10.103921890258789], ["▁lig", -10.104387283325195], ["▁سو", -10.104399681091309], ["ные", -10.104439735412598], ["тың", -10.104613304138184], ["ação", -10.104907989501953], ["▁रहा", -10.105161666870117], ["ள", -10.105940818786621], ["▁vers", -10.10620403289795], ["୧", -10.106255531311035], ["cul", -10.106430053710938], ["▁ку", -10.106517791748047], ["▁waxaa", -10.106562614440918], ["也", -10.10659408569336], ["zy", -10.107173919677734], ["gas", -10.107281684875488], ["ନି", -10.108114242553711], ["▁tä", -10.10811996459961], ["ア", -10.108233451843262], ["▁제", -10.108613967895508], ["▁απο", -10.10863208770752], ["▁부", -10.108877182006836], ["ሽ", -10.108997344970703], ["적", -10.109126091003418], ["up", -10.109314918518066], ["▁mwaka", -10.109339714050293], ["▁online", -10.109891891479492], ["ниот", -10.110076904296875], ["rze", -10.110912322998047], ["▁ji", -10.11091423034668], ["▁φ", -10.110957145690918], ["▁공", -10.111101150512695], ["▁എ", -10.111218452453613], ["ाच्या", -10.111387252807617], ["▁બે", -10.111658096313477], ["▁parti", -10.111740112304688], ["än", -10.112244606018066], ["if", -10.11240291595459], ["▁mem", -10.112555503845215], ["▁hay", -10.112579345703125], ["ça", -10.11267375946045], ["sze", -10.113725662231445], ["▁ac", -10.11378002166748], ["法", -10.114245414733887], ["бек", -10.114423751831055], ["bor", -10.114701271057129], ["▁ಪ್ರ", -10.11472225189209], ["sia", -10.114782333374023], ["தான்", -10.114810943603516], ["▁were", -10.115378379821777], ["ंग", -10.115382194519043], ["ରି", -10.115403175354004], ["ಗಳಲ್ಲಿ", -10.115736961364746], ["▁vii", -10.115839004516602], ["▁পর", -10.115906715393066], ["▁କରିବା", -10.116230010986328], ["▁time", -10.116873741149902], ["▁kwenye", -10.116951942443848], ["▁সে", -10.117074012756348], ["▁ਜ", -10.117083549499512], ["ತೆ", -10.117183685302734], ["nni", -10.118197441101074], ["▁사", -10.118261337280273], ["▁what", -10.118906021118164], ["回", -10.119464874267578], ["bre", -10.119766235351562], ["重", -10.119793891906738], ["zwa", -10.120173454284668], ["kii", -10.120757102966309], ["ൽ", -10.120837211608887], ["▁2016", -10.120859146118164], ["▁aber", -10.1214599609375], ["ring", -10.12154483795166], ["▁mutta", -10.121710777282715], ["ската", -10.121984481811523], ["port", -10.122030258178711], ["小", -10.122532844543457], ["▁ਕੀ", -10.122918128967285], ["▁300", -10.1229829788208], ["▁þar", -10.12303638458252], ["ovi", -10.123184204101562], ["▁هر", -10.123285293579102], ["▁dell", -10.124028205871582], ["jā", -10.124151229858398], ["▁като", -10.124156951904297], ["nge", -10.12455940246582], ["▁көр", -10.124802589416504], ["▁үчүн", -10.12517261505127], ["18", -10.1251859664917], ["ino", -10.125219345092773], ["ړ", -10.125246047973633], ["▁deur", -10.125519752502441], ["▁bin", -10.12617301940918], ["щ", -10.126193046569824], ["ټ", -10.12665843963623], ["oli", -10.127190589904785], ["▁social", -10.127754211425781], ["▁pus", -10.127799987792969], ["jos", -10.128326416015625], ["後", -10.128382682800293], ["ମା", -10.128702163696289], ["жа", -10.128893852233887], ["imi", -10.12941837310791], ["wer", -10.129888534545898], ["▁ਨ", -10.129951477050781], ["ਿਆਂ", -10.130226135253906], ["▁images", -10.13053035736084], ["▁aasta", -10.13080883026123], ["▁tele", -10.131062507629395], ["▁app", -10.131115913391113], ["ዊ", -10.131232261657715], ["▁ହୋଇ", -10.131619453430176], ["▁nur", -10.131897926330566], ["▁उ", -10.132311820983887], ["▁ମା", -10.132364273071289], ["▁ž", -10.132412910461426], ["ቆ", -10.132468223571777], ["eti", -10.132495880126953], ["▁होते", -10.132597923278809], ["сі", -10.13271427154541], ["ság", -10.132728576660156], ["ava", -10.132781982421875], ["▁fu", -10.132829666137695], ["ение", -10.132904052734375], ["▁kol", -10.132952690124512], ["ங்கள்", -10.133359909057617], ["▁þá", -10.133634567260742], ["pp", -10.133675575256348], ["ló", -10.133695602416992], ["▁пол", -10.13382339477539], ["iste", -10.13422966003418], ["ير", -10.134515762329102], ["జ", -10.134740829467773], ["інің", -10.134750366210938], ["▁now", -10.135393142700195], ["ön", -10.135836601257324], ["ēja", -10.135869026184082], ["▁ق", -10.136253356933594], ["ero", -10.136391639709473], ["용", -10.137662887573242], ["ره", -10.1376953125], ["sty", -10.137725830078125], ["▁leg", -10.137842178344727], ["ଥିବା", -10.138884544372559], ["▁mark", -10.138897895812988], ["ଙ୍ଗ", -10.13902759552002], ["rwa", -10.139565467834473], ["▁କରିଛନ୍ତି", -10.139792442321777], ["тин", -10.140088081359863], ["ību", -10.140247344970703], ["ନ୍‌", -10.140812873840332], ["▁зна", -10.140889167785645], ["▁през", -10.141801834106445], ["▁ਫ", -10.142033576965332], ["ян", -10.142069816589355], ["▁mereka", -10.142267227172852], ["مه", -10.142889976501465], ["17", -10.143453598022461], ["▁nou", -10.143528938293457], ["▁ол", -10.143620491027832], ["end", -10.14394474029541], ["bel", -10.144079208374023], ["ori", -10.144124031066895], ["된", -10.144497871398926], ["مر", -10.144704818725586], ["▁teh", -10.144783973693848], ["ሲ", -10.144987106323242], ["▁ਬ", -10.145756721496582], ["リ", -10.145890235900879], ["▁pää", -10.145965576171875], ["▁план", -10.146096229553223], ["▁2014", -10.146191596984863], ["▁tro", -10.146278381347656], ["ità", -10.146594047546387], ["wie", -10.14675521850586], ["▁दिया", -10.147322654724121], ["ಬ", -10.14748764038086], ["മാണ്", -10.147489547729492], ["рт", -10.14765739440918], ["వా", -10.1488037109375], ["▁prima", -10.149002075195312], ["τε", -10.14930534362793], ["▁വ", -10.149408340454102], ["▁kell", -10.149545669555664], ["▁ár", -10.150605201721191], ["άν", -10.15079116821289], ["щи", -10.150975227355957], ["트", -10.150995254516602], ["▁forma", -10.150999069213867], ["стан", -10.15104866027832], ["１", -10.151477813720703], ["சி", -10.151716232299805], ["dien", -10.15174674987793], ["▁noch", -10.151902198791504], ["つ", -10.152527809143066], ["▁жок", -10.152725219726562], ["யா", -10.152789115905762], ["▁xa", -10.15315055847168], ["iko", -10.153313636779785], ["્યો", -10.153356552124023], ["▁કોરોના", -10.153989791870117], ["▁sol", -10.154141426086426], ["ges", -10.154191017150879], ["▁vaccin", -10.154861450195312], ["lang", -10.15506649017334], ["mä", -10.155353546142578], ["明", -10.155606269836426], ["▁ఆయన", -10.1556978225708], ["▁پاکستان", -10.156852722167969], ["▁vier", -10.157028198242188], ["lis", -10.157140731811523], ["ró", -10.15726089477539], ["nan", -10.157629013061523], ["ente", -10.157989501953125], ["шы", -10.158050537109375], ["ానికి", -10.158926010131836], ["ത്ത്", -10.159001350402832], ["▁saya", -10.159011840820312], ["▁ис", -10.1592378616333], ["▁start", -10.159428596496582], ["নে", -10.160013198852539], ["▁nam", -10.160054206848145], ["ité", -10.160296440124512], ["▁osa", -10.160545349121094], ["▁75", -10.16055965423584], ["دي", -10.16092300415039], ["ń", -10.160932540893555], ["▁watu", -10.160940170288086], ["▁много", -10.161202430725098], ["kus", -10.162620544433594], ["▁હ", -10.162699699401855], ["anda", -10.162881851196289], ["▁elle", -10.163159370422363], ["yti", -10.163458824157715], ["ವು", -10.163516998291016], ["ların", -10.163627624511719], ["лет", -10.163785934448242], ["▁vēl", -10.163825035095215], ["gera", -10.164102554321289], ["ሱ", -10.164188385009766], ["▁ಹಾಗೂ", -10.164280891418457], ["▁1.", -10.164496421813965], ["dal", -10.164702415466309], ["▁два", -10.164961814880371], ["▁38", -10.165172576904297], ["▁ఎ", -10.165304183959961], ["ె", -10.165435791015625], ["ije", -10.166144371032715], ["▁кар", -10.16618537902832], ["тын", -10.166345596313477], ["ük", -10.166464805603027], ["ઝ", -10.16669750213623], ["ಲ್ಲ", -10.166770935058594], ["uz", -10.167037963867188], ["▁col", -10.167226791381836], ["▁nei", -10.167366027832031], ["انو", -10.167821884155273], ["요", -10.167851448059082], ["▁време", -10.168079376220703], ["▁ਜਾ", -10.16812515258789], ["▁тур", -10.168197631835938], ["▁سي", -10.168225288391113], ["▁бойынша", -10.16888427734375], ["▁үшін", -10.16894817352295], ["дың", -10.169097900390625], ["सा", -10.169493675231934], ["туу", -10.169785499572754], ["▁koje", -10.170441627502441], ["▁nema", -10.170592308044434], ["▁ই", -10.170754432678223], ["▁고", -10.170869827270508], ["تر", -10.170882225036621], ["▁পা", -10.171074867248535], ["▁нема", -10.17121410369873], ["nne", -10.171257972717285], ["ां", -10.171266555786133], ["ít", -10.171273231506348], ["▁vas", -10.171821594238281], ["ાય", -10.172264099121094], ["▁вакцина", -10.173126220703125], ["▁vien", -10.173148155212402], ["ై", -10.173151016235352], ["み", -10.173236846923828], ["▁रही", -10.17336368560791], ["▁گفت", -10.173624038696289], ["▁బ", -10.173900604248047], ["umi", -10.175066947937012], ["ék", -10.17512321472168], ["▁nes", -10.175215721130371], ["▁ગ", -10.17538070678711], ["▁vu", -10.176032066345215], ["ሚ", -10.176488876342773], ["ਲਾ", -10.176789283752441], ["ంలో", -10.177027702331543], ["▁ná", -10.177083015441895], ["▁mat", -10.17717170715332], ["್ಯಾ", -10.177224159240723], ["▁бер", -10.177578926086426], ["nsa", -10.177961349487305], ["ych", -10.177983283996582], ["بي", -10.178378105163574], ["▁чи", -10.178385734558105], ["uko", -10.178610801696777], ["ழ", -10.178718566894531], ["▁sudah", -10.179436683654785], ["▁kuu", -10.179572105407715], ["▁još", -10.179712295532227], ["വും", -10.179764747619629], ["▁அவர்", -10.179913520812988], ["手", -10.180006980895996], ["권", -10.180517196655273], ["▁public", -10.18055248260498], ["16", -10.180707931518555], ["ore", -10.180768013000488], ["tz", -10.180875778198242], ["ವಿ", -10.181248664855957], ["rī", -10.181727409362793], ["tum", -10.181896209716797], ["▁така", -10.181992530822754], ["▁рас", -10.182056427001953], ["▁сам", -10.182433128356934], ["ūr", -10.18283748626709], ["▁geen", -10.183453559875488], ["▁są", -10.183568954467773], ["▁week", -10.183967590332031], ["▁rekao", -10.184015274047852], ["▁sê", -10.184492111206055], ["▁бе", -10.184625625610352], ["ют", -10.185042381286621], ["▁teen", -10.185168266296387], ["▁గ", -10.185190200805664], ["って", -10.185354232788086], ["ଚ", -10.185370445251465], ["э", -10.18552303314209], ["ime", -10.185582160949707], ["nju", -10.185643196105957], ["வர்", -10.186452865600586], ["▁거", -10.186476707458496], ["pt", -10.18685531616211], ["ады", -10.186938285827637], ["ото", -10.186951637268066], ["선", -10.187049865722656], ["▁coronavirus", -10.187405586242676], ["vé", -10.188084602355957], ["▁години", -10.188159942626953], ["pla", -10.189091682434082], ["期", -10.189274787902832], ["▁laga", -10.190032005310059], ["▁थी", -10.190186500549316], ["▁after", -10.190332412719727], ["▁ак", -10.190755844116211], ["業", -10.190780639648438], ["mist", -10.190900802612305], ["ମାନେ", -10.191054344177246], ["회", -10.191271781921387], ["▁кара", -10.191519737243652], ["▁polisi", -10.191824913024902], ["▁р", -10.191985130310059], ["▁थे", -10.192269325256348], ["லி", -10.192322731018066], ["▁bya", -10.192608833312988], ["stan", -10.192642211914062], ["▁pred", -10.192902565002441], ["▁prie", -10.19300365447998], ["▁아", -10.19387149810791], ["пе", -10.194218635559082], ["pr", -10.194499015808105], ["0000", -10.194672584533691], ["▁ras", -10.194913864135742], ["nto", -10.195236206054688], ["ним", -10.195457458496094], ["це", -10.195672988891602], ["los", -10.19567584991455], ["nych", -10.195744514465332], ["▁ö", -10.195972442626953], ["▁र", -10.19633960723877], ["▁italia", -10.196721076965332], ["▁നി", -10.19691276550293], ["▁થઈ", -10.197126388549805], ["▁mid", -10.197297096252441], ["dro", -10.19802188873291], ["તી", -10.19834041595459], ["ör", -10.198590278625488], ["▁دغه", -10.198660850524902], ["нан", -10.19885540008545], ["▁وايي", -10.199141502380371], ["차", -10.199172019958496], ["like", -10.19924545288086], ["лан", -10.199366569519043], ["рі", -10.199914932250977], ["▁svi", -10.200289726257324], ["▁wil", -10.200309753417969], ["യെ", -10.200386047363281], ["▁werk", -10.200485229492188], ["ਤੀ", -10.200515747070312], ["டு", -10.20065975189209], ["▁його", -10.20073127746582], ["பி", -10.201029777526855], ["▁بل", -10.20111083984375], ["vr", -10.201461791992188], ["▁nakon", -10.201682090759277], ["▁kum", -10.20186710357666], ["ର୍", -10.202303886413574], ["ibi", -10.202361106872559], ["slu", -10.202495574951172], ["▁nad", -10.202529907226562], ["୍", -10.203121185302734], ["▁비", -10.203333854675293], ["▁मु", -10.203845977783203], ["▁bank", -10.203974723815918], ["ുക", -10.203975677490234], ["▁latvijas", -10.204050064086914], ["▁bilo", -10.204337120056152], ["iai", -10.204512596130371], ["ంద", -10.20451545715332], ["▁бу", -10.20460033416748], ["▁wo", -10.205094337463379], ["دا", -10.205164909362793], ["▁ok", -10.206320762634277], ["▁ካ", -10.20640754699707], ["ـ", -10.206803321838379], ["ttä", -10.207292556762695], ["▁সা", -10.207300186157227], ["dem", -10.20743465423584], ["▁don", -10.207704544067383], ["rk", -10.207733154296875], ["kal", -10.207841873168945], ["bal", -10.207910537719727], ["sar", -10.207935333251953], ["ま", -10.2081937789917], ["▁ban", -10.20826244354248], ["টা", -10.208539962768555], ["▁нај", -10.208828926086426], ["тор", -10.208879470825195], ["▁జ", -10.208938598632812], ["▁kim", -10.210283279418945], ["▁ক", -10.210331916809082], ["ttu", -10.210348129272461], ["▁kale", -10.210395812988281], ["aga", -10.210901260375977], ["ice", -10.210968017578125], ["idad", -10.211020469665527], ["ク", -10.211225509643555], ["▁জন্য", -10.21152114868164], ["ால்", -10.211953163146973], ["▁pol", -10.21200180053711], ["▁β", -10.212260246276855], ["▁zbog", -10.21238899230957], ["ał", -10.213180541992188], ["വി", -10.21338176727295], ["▁ਕੀਤੀ", -10.213409423828125], ["▁if", -10.213879585266113], ["ds", -10.214497566223145], ["▁þ", -10.21459674835205], ["zioni", -10.214751243591309], ["▁सु", -10.214916229248047], ["ুল", -10.21493148803711], ["▁tim", -10.215137481689453], ["বি", -10.215270042419434], ["డ్", -10.215316772460938], ["▁sig", -10.215537071228027], ["▁getty", -10.21557903289795], ["ଛନ୍ତି", -10.215828895568848], ["▁mene", -10.215847969055176], ["▁wali", -10.215852737426758], ["14", -10.216231346130371], ["ré", -10.21627140045166], ["ια", -10.216333389282227], ["din", -10.216700553894043], ["用", -10.216973304748535], ["utu", -10.217504501342773], ["▁cal", -10.21769905090332], ["▁tar", -10.217848777770996], ["天", -10.217998504638672], ["▁फ", -10.218012809753418], ["பா", -10.218040466308594], ["ības", -10.218207359313965], ["berg", -10.219483375549316], ["ola", -10.219544410705566], ["▁sua", -10.219751358032227], ["ト", -10.21985149383545], ["iv", -10.219948768615723], ["▁против", -10.220168113708496], ["ష", -10.220703125], ["・", -10.220759391784668], ["uru", -10.221237182617188], ["▁também", -10.22155475616455], ["▁dass", -10.221871376037598], ["▁ఏ", -10.221883773803711], ["kä", -10.222258567810059], ["ഷ", -10.223508834838867], ["▁روز", -10.22362232208252], ["▁informa", -10.223906517028809], ["▁ان", -10.2241849899292], ["دار", -10.22442626953125], ["rak", -10.22509479522705], ["ু", -10.225412368774414], ["ቦ", -10.225858688354492], ["ከ", -10.226423263549805], ["▁έ", -10.226461410522461], ["作", -10.226523399353027], ["రీ", -10.226582527160645], ["▁üle", -10.226621627807617], ["▁jis", -10.227459907531738], ["▁નથી", -10.227588653564453], ["好", -10.227607727050781], ["andi", -10.227614402770996], ["▁need", -10.228079795837402], ["ాన్ని", -10.228154182434082], ["▁aussi", -10.228812217712402], ["▁பா", -10.229043006896973], ["age", -10.229085922241211], ["ón", -10.229085922241211], ["▁vy", -10.229167938232422], ["▁жұмыс", -10.229948997497559], ["▁lang", -10.230212211608887], ["ുന്നത്", -10.230246543884277], ["uh", -10.230299949645996], ["▁hul", -10.2303466796875], ["▁бас", -10.230923652648926], ["▁होतं", -10.231108665466309], ["лю", -10.231168746948242], ["ின்", -10.231415748596191], ["▁ወ", -10.231484413146973], ["▁તો", -10.231521606445312], ["லை", -10.231529235839844], ["▁자", -10.23176097869873], ["▁ise", -10.231847763061523], ["▁አስ", -10.231998443603516], ["▁दे", -10.232973098754883], ["▁болгон", -10.232982635498047], ["▁ed", -10.233067512512207], ["▁ker", -10.233315467834473], ["▁پ", -10.23332691192627], ["rit", -10.233457565307617], ["پ", -10.233487129211426], ["ाने", -10.23361873626709], ["▁الج", -10.233736038208008], ["ኒ", -10.233771324157715], ["ંગ", -10.233893394470215], ["▁ça", -10.23444652557373], ["డు", -10.234583854675293], ["test", -10.234831809997559], ["▁الح", -10.234939575195312], ["nica", -10.235067367553711], ["▁37", -10.235130310058594], ["体", -10.23519515991211], ["లను", -10.23525333404541], ["▁china", -10.235299110412598], ["lje", -10.235467910766602], ["▁több", -10.235793113708496], ["▁ख", -10.236008644104004], ["tı", -10.236177444458008], ["uti", -10.236363410949707], ["ೈ", -10.236594200134277], ["šu", -10.236861228942871], ["ਫ", -10.23745059967041], ["ност", -10.237932205200195], ["ης", -10.237944602966309], ["▁lei", -10.237985610961914], ["nir", -10.2382173538208], ["فر", -10.238276481628418], ["會", -10.238380432128906], ["▁ev", -10.238452911376953], ["ਦੀ", -10.238958358764648], ["▁கா", -10.239304542541504], ["ила", -10.239371299743652], ["ನ್‌", -10.239923477172852], ["▁оп", -10.239971160888672], ["cija", -10.240097999572754], ["26", -10.24046802520752], ["اح", -10.240618705749512], ["▁طالبان", -10.240653038024902], ["▁pala", -10.24088191986084], ["▁қазақстан", -10.240983009338379], ["iri", -10.240984916687012], ["ለው", -10.241328239440918], ["لې", -10.241355895996094], ["డి", -10.241365432739258], ["▁ሊ", -10.241400718688965], ["▁според", -10.241510391235352], ["essa", -10.241720199584961], ["▁radi", -10.241878509521484], ["نې", -10.242072105407715], ["▁tie", -10.242206573486328], ["▁casa", -10.242469787597656], ["재", -10.242480278015137], ["ሎ", -10.242569923400879], ["pre", -10.242642402648926], ["ژ", -10.242973327636719], ["▁यह", -10.243622779846191], ["▁କରିଥିଲେ", -10.244004249572754], ["▁55", -10.24402141571045], ["山", -10.24431037902832], ["dus", -10.244820594787598], ["ene", -10.245162010192871], ["度", -10.245293617248535], ["▁వ", -10.245323181152344], ["ando", -10.245382308959961], ["ef", -10.245561599731445], ["ld", -10.245657920837402], ["ел", -10.245659828186035], ["▁wird", -10.245763778686523], ["mir", -10.245889663696289], ["zin", -10.246041297912598], ["▁tema", -10.246079444885254], ["▁ఉన్న", -10.246308326721191], ["ул", -10.246448516845703], ["▁нови", -10.246654510498047], ["▁tahun", -10.247169494628906], ["ence", -10.247292518615723], ["▁sana", -10.247645378112793], ["要", -10.24806022644043], ["▁час", -10.248161315917969], ["ρι", -10.248271942138672], ["ਧ", -10.248578071594238], ["▁kat", -10.248677253723145], ["ኛ", -10.24912166595459], ["▁rw", -10.249227523803711], ["क्ष", -10.249366760253906], ["▁କହିଛନ୍ତି", -10.249449729919434], ["یل", -10.249475479125977], ["ফ", -10.249677658081055], ["▁شوې", -10.249815940856934], ["▁kw", -10.250103950500488], ["κα", -10.250210762023926], ["外", -10.250449180603027], ["▁є", -10.250457763671875], ["ения", -10.250533103942871], ["ಿದ್ದು", -10.25078010559082], ["以", -10.250853538513184], ["tat", -10.251018524169922], ["ظ", -10.251158714294434], ["▁сот", -10.251158714294434], ["ía", -10.251564979553223], ["▁kada", -10.251608848571777], ["▁pole", -10.25274658203125], ["▁48", -10.252774238586426], ["비", -10.252853393554688], ["gna", -10.252963066101074], ["▁protest", -10.252968788146973], ["нің", -10.253006935119629], ["పు", -10.253021240234375], ["ubu", -10.253231048583984], ["ॅ", -10.253938674926758], ["▁hafi", -10.254073143005371], ["까지", -10.254103660583496], ["▁кои", -10.254487037658691], ["ins", -10.254502296447754], ["▁করেন", -10.254988670349121], ["45", -10.25510311126709], ["інде", -10.255206108093262], ["▁trans", -10.255537986755371], ["▁ao", -10.256372451782227], ["тел", -10.256742477416992], ["്യ", -10.25734806060791], ["ವಾ", -10.258148193359375], ["या", -10.258613586425781], ["ern", -10.258793830871582], ["▁nta", -10.258914947509766], ["kos", -10.258993148803711], ["心", -10.259171485900879], ["ಶ", -10.259243965148926], ["લા", -10.259432792663574], ["▁pero", -10.259512901306152], ["▁szerint", -10.259772300720215], ["▁ك", -10.25991153717041], ["lia", -10.259992599487305], ["全", -10.260110855102539], ["▁எ", -10.260309219360352], ["▁nii", -10.260382652282715], ["ዱ", -10.260723114013672], ["ுள்ளது", -10.260984420776367], ["▁የአ", -10.26101016998291], ["đe", -10.26135540008545], ["▁ସା", -10.261589050292969], ["খ", -10.26159381866455], ["con", -10.261653900146484], ["▁fc", -10.261795043945312], ["▁maa", -10.261852264404297], ["nici", -10.262057304382324], ["して", -10.26219654083252], ["▁εν", -10.26251220703125], ["ഗ", -10.262625694274902], ["▁এবং", -10.26279067993164], ["▁있는", -10.262923240661621], ["য়", -10.263154029846191], ["stand", -10.26335620880127], ["▁조", -10.263460159301758], ["▁wib", -10.263617515563965], ["▁ਭਾਰਤ", -10.263758659362793], ["ियों", -10.264025688171387], ["ыр", -10.26406478881836], ["▁لپاره", -10.264300346374512], ["▁күн", -10.264561653137207], ["▁ਬਾਅਦ", -10.2647123336792], ["وب", -10.264741897583008], ["▁ч", -10.265237808227539], ["▁хо", -10.265294075012207], ["▁داد", -10.266051292419434], ["▁vil", -10.266100883483887], ["▁kis", -10.266312599182129], ["▁face", -10.266555786132812], ["ėjo", -10.266942977905273], ["gue", -10.267037391662598], ["via", -10.26708984375], ["ім", -10.267102241516113], ["▁حکومت", -10.267326354980469], ["▁نیز", -10.267525672912598], ["▁olarak", -10.267793655395508], ["ें", -10.267851829528809], ["gira", -10.267992973327637], ["▁hebben", -10.268074989318848], ["▁ਮੈਂ", -10.268107414245605], ["ਫ਼", -10.268288612365723], ["મી", -10.268304824829102], ["ತ್ತ", -10.26849365234375], ["▁42", -10.268535614013672], ["ণ", -10.269577980041504], ["▁mel", -10.269856452941895], ["▁pet", -10.270598411560059], ["бра", -10.270886421203613], ["▁vin", -10.271010398864746], ["▁شود", -10.271101951599121], ["കള്‍", -10.271222114562988], ["سي", -10.271895408630371], ["ਦੇ", -10.27204704284668], ["▁சி", -10.272049903869629], ["ో", -10.27208423614502], ["வே", -10.272294998168945], ["ാന", -10.272661209106445], ["▁pr", -10.272722244262695], ["வா", -10.272798538208008], ["por", -10.273089408874512], ["自", -10.273171424865723], ["▁ለመ", -10.273579597473145], ["▁ந", -10.273665428161621], ["▁nk", -10.273807525634766], ["anza", -10.273885726928711], ["fen", -10.274162292480469], ["ጎ", -10.27420425415039], ["▁wake", -10.2742338180542], ["ਨੀ", -10.274728775024414], ["▁dla", -10.275026321411133], ["ाला", -10.275176048278809], ["爲", -10.275330543518066], ["▁тој", -10.275407791137695], ["▁ден", -10.275422096252441], ["▁već", -10.275430679321289], ["▁bari", -10.275440216064453], ["▁bwa", -10.275571823120117], ["조", -10.275790214538574], ["বে", -10.276012420654297], ["tter", -10.276056289672852], ["▁केली", -10.276665687561035], ["▁biz", -10.276784896850586], ["іне", -10.277338981628418], ["ουμε", -10.277523040771484], ["در", -10.277558326721191], ["kul", -10.277613639831543], ["▁эл", -10.27816104888916], ["▁2000", -10.27841567993164], ["▁yake", -10.278468132019043], ["▁안", -10.27857494354248], ["▁2013", -10.27869987487793], ["бы", -10.278806686401367], ["▁осы", -10.27895736694336], ["▁imp", -10.279423713684082], ["▁сме", -10.27963638305664], ["▁fra", -10.280223846435547], ["со", -10.28032112121582], ["▁सं", -10.281129837036133], ["۰", -10.28113842010498], ["さ", -10.281268119812012], ["▁president", -10.281277656555176], ["▁pandemi", -10.281410217285156], ["▁solo", -10.281584739685059], ["▁ਤ", -10.281634330749512], ["യിൽ", -10.281978607177734], ["▁کابل", -10.282054901123047], ["▁ವಿ", -10.282218933105469], ["▁daha", -10.282272338867188], ["ib", -10.282330513000488], ["▁organiz", -10.282590866088867], ["tab", -10.282816886901855], ["▁cette", -10.282899856567383], ["▁europe", -10.282997131347656], ["▁tuo", -10.283077239990234], ["ssi", -10.283204078674316], ["ун", -10.283597946166992], ["▁¿", -10.283736228942871], ["位", -10.28385066986084], ["▁még", -10.28403377532959], ["▁spo", -10.284135818481445], ["ý", -10.284409523010254], ["▁ве", -10.284502983093262], ["▁श", -10.284517288208008], ["▁دارد", -10.285035133361816], ["dė", -10.285075187683105], ["ച്ച", -10.285146713256836], ["▁ಇ", -10.285216331481934], ["▁ઉ", -10.285309791564941], ["▁కా", -10.285730361938477], ["ದು", -10.285898208618164], ["▁жатат", -10.285919189453125], ["ಯಾಗ", -10.28679084777832], ["tari", -10.286874771118164], ["τι", -10.28704833984375], ["لا", -10.287076950073242], ["▁sér", -10.2872953414917], ["রি", -10.287692070007324], ["ኩ", -10.287901878356934], ["▁کړي", -10.287936210632324], ["▁ih", -10.287981033325195], ["▁وا", -10.288125991821289], ["▁65", -10.288233757019043], ["▁pandemia", -10.288257598876953], ["aja", -10.288421630859375], ["为", -10.288430213928223], ["له", -10.2887544631958], ["ൈ", -10.28879451751709], ["▁୩", -10.289164543151855], ["tam", -10.289203643798828], ["īt", -10.289222717285156], ["nzi", -10.289613723754883], ["бе", -10.289865493774414], ["▁алып", -10.289923667907715], ["ቋ", -10.29015064239502], ["▁yer", -10.29024887084961], ["▁tiek", -10.290553092956543], ["▁محمد", -10.291023254394531], ["▁hún", -10.29116439819336], ["▁0000", -10.291171073913574], ["▁já", -10.291357040405273], ["né", -10.291475296020508], ["ಿದ್ದರು", -10.291766166687012], ["دی", -10.292439460754395], ["▁شهر", -10.292665481567383], ["단", -10.29281234741211], ["▁فر", -10.292830467224121], ["ум", -10.293023109436035], ["bes", -10.2930269241333], ["уп", -10.293140411376953], ["▁ጥ", -10.293222427368164], ["▁ಅವರು", -10.293256759643555], ["ēt", -10.293658256530762], ["لی", -10.293832778930664], ["net", -10.293855667114258], ["▁selle", -10.293863296508789], ["ጉ", -10.29403305053711], ["ose", -10.29417610168457], ["ват", -10.294695854187012], ["▁الف", -10.294896125793457], ["oja", -10.295039176940918], ["▁bit", -10.295137405395508], ["vä", -10.295174598693848], ["ungen", -10.295310020446777], ["▁internet", -10.295434951782227], ["uni", -10.295602798461914], ["ht", -10.29625129699707], ["ble", -10.296337127685547], ["వి", -10.296565055847168], ["▁ጊዜ", -10.296611785888672], ["▁tegen", -10.296629905700684], ["isten", -10.296892166137695], ["mpa", -10.29695987701416], ["τη", -10.297053337097168], ["isen", -10.297070503234863], ["=", -10.297247886657715], ["▁пе", -10.297274589538574], ["eren", -10.29738712310791], ["通", -10.297529220581055], ["dzie", -10.29753303527832], ["ост", -10.297579765319824], ["ரை", -10.297942161560059], ["ప్", -10.29825210571289], ["▁total", -10.298460960388184], ["▁ફ", -10.299175262451172], ["▁ses", -10.29922866821289], ["▁кал", -10.299294471740723], ["ಗಳಿಗೆ", -10.299421310424805], ["▁জা", -10.29946231842041], ["из", -10.299541473388672], ["களில்", -10.300030708312988], ["enda", -10.300325393676758], ["iva", -10.300346374511719], ["▁bbc", -10.300387382507324], ["13", -10.300529479980469], ["nze", -10.30079174041748], ["▁ನೀಡ", -10.300908088684082], ["ngi", -10.301262855529785], ["ኝ", -10.30134105682373], ["and", -10.301400184631348], ["▁પ", -10.301583290100098], ["ക്ഷ", -10.301647186279297], ["▁44", -10.301804542541504], ["ções", -10.301847457885742], ["ete", -10.302037239074707], ["يم", -10.30230712890625], ["▁2021,", -10.302451133728027], ["πο", -10.302630424499512], ["ঁ", -10.302800178527832], ["▁karena", -10.302960395812988], ["▁ግን", -10.303224563598633], ["ати", -10.303712844848633], ["ന്", -10.304004669189453], ["ட்டு", -10.304388046264648], ["aya", -10.304688453674316], ["्स", -10.304698944091797], ["மா", -10.304915428161621], ["enia", -10.305458068847656], ["▁sada", -10.305495262145996], ["রে", -10.305545806884766], ["િક", -10.305703163146973], ["aj", -10.305892944335938], ["▁شو", -10.305973052978516], ["মা", -10.306015968322754], ["國", -10.306307792663574], ["▁39", -10.306694030761719], ["ଡ", -10.30690860748291], ["ቢ", -10.30699348449707], ["▁αυτό", -10.307233810424805], ["lv", -10.307259559631348], ["▁gy", -10.307280540466309], ["▁jer", -10.307478904724121], ["▁ха", -10.308077812194824], ["үн", -10.308091163635254], ["▁болуп", -10.308725357055664], ["▁келген", -10.309029579162598], ["jä", -10.309090614318848], ["▁его", -10.309106826782227], ["czy", -10.309263229370117], ["▁ቢ", -10.309639930725098], ["kra", -10.309762001037598], ["▁জন", -10.310110092163086], ["▁iyi", -10.310152053833008], ["ute", -10.310188293457031], ["að", -10.310745239257812], ["理", -10.311225891113281], ["▁сто", -10.311275482177734], ["ത്തെ", -10.311810493469238], ["▁lakini", -10.312032699584961], ["▁nova", -10.312044143676758], ["ák", -10.31212329864502], ["▁tym", -10.312516212463379], ["▁त्यांनी", -10.312573432922363], ["ує", -10.31296157836914], ["▁hoe", -10.313117027282715], ["ном", -10.313501358032227], ["▁būs", -10.313584327697754], ["▁nchini", -10.314065933227539], ["▁жылғы", -10.314074516296387], ["ባቸው", -10.314077377319336], ["▁ز", -10.314103126525879], ["▁های", -10.314128875732422], ["▁μπ", -10.314214706420898], ["▁소", -10.314251899719238], ["sk", -10.314282417297363], ["▁দ", -10.314502716064453], ["▁после", -10.314579010009766], ["48", -10.314939498901367], ["29", -10.314958572387695], ["تي", -10.315265655517578], ["ሴ", -10.315325736999512], ["की", -10.315507888793945], ["ix", -10.315656661987305], ["прав", -10.315845489501953], ["就", -10.315860748291016], ["сына", -10.316033363342285], ["कार", -10.31605052947998], ["tem", -10.316055297851562], ["▁2015", -10.316434860229492], ["관", -10.31644344329834], ["увати", -10.316793441772461], ["국", -10.316957473754883], ["മായി", -10.31702995300293], ["istä", -10.31704044342041], ["дің", -10.317314147949219], ["▁club", -10.317339897155762], ["bro", -10.317344665527344], ["mann", -10.317449569702148], ["▁বলে", -10.317529678344727], ["žu", -10.31811809539795], ["ком", -10.318129539489746], ["hal", -10.31824779510498], ["▁uyu", -10.318446159362793], ["und", -10.318488121032715], ["▁siis", -10.318558692932129], ["▁خبر", -10.318620681762695], ["▁यांच्या", -10.318843841552734], ["ቸው", -10.319095611572266], ["रे", -10.319311141967773], ["har", -10.319555282592773], ["▁stan", -10.319649696350098], ["산", -10.319785118103027], ["ij", -10.320108413696289], ["▁তা", -10.320215225219727], ["▁41", -10.320221900939941], ["▁அந்த", -10.320342063903809], ["ую", -10.320590019226074], ["teri", -10.320773124694824], ["మా", -10.320905685424805], ["▁sor", -10.321052551269531], ["000", -10.32106876373291], ["eva", -10.321081161499023], ["adi", -10.321203231811523], ["লি", -10.321233749389648], ["加", -10.321316719055176], ["▁ቤት", -10.32139778137207], ["▁ska", -10.321440696716309], ["▁osta", -10.321808815002441], ["▁ат", -10.32186508178711], ["wy", -10.321975708007812], ["▁бирок", -10.322568893432617], ["▁uru", -10.322870254516602], ["▁bak", -10.322930335998535], ["త్", -10.322933197021484], ["ega", -10.32319450378418], ["▁pré", -10.323579788208008], ["್ಯ", -10.323624610900879], ["▁ақ", -10.3236665725708], ["合", -10.32387638092041], ["மான", -10.323925971984863], ["ല്ല", -10.324277877807617], ["분", -10.324311256408691], ["бор", -10.324637413024902], ["ায়", -10.324650764465332], ["▁γ", -10.324694633483887], ["chen", -10.324762344360352], ["▁రా", -10.324851036071777], ["▁които", -10.324989318847656], ["▁कहा", -10.325194358825684], ["شت", -10.325376510620117], ["্", -10.32576847076416], ["ሬ", -10.325775146484375], ["tica", -10.326140403747559], ["▁ای", -10.326334953308105], ["▁gel", -10.326476097106934], ["கி", -10.326597213745117], ["▁ها", -10.326889038085938], ["公", -10.327031135559082], ["對", -10.327065467834473], ["▁घर", -10.327459335327148], ["ണം", -10.32789421081543], ["▁seda", -10.32826042175293], ["▁mü", -10.328328132629395], ["▁ص", -10.328347206115723], ["▁అని", -10.328493118286133], ["ак", -10.328577995300293], ["чен", -10.328619003295898], ["ಲಾ", -10.328668594360352], ["را", -10.328850746154785], ["▁aiz", -10.3289794921875], ["▁করতে", -10.329446792602539], ["▁ನಿ", -10.329526901245117], ["▁amesema", -10.329631805419922], ["▁may", -10.329748153686523], ["ખ", -10.329893112182617], ["動", -10.329947471618652], ["дагы", -10.330728530883789], ["▁indonesia", -10.330731391906738], ["dig", -10.330894470214844], ["nio", -10.331326484680176], ["ници", -10.331487655639648], ["oc", -10.331582069396973], ["▁vairāk", -10.332053184509277], ["werk", -10.332209587097168], ["방", -10.332318305969238], ["▁୨", -10.332367897033691], ["▁ስ", -10.332554817199707], ["él", -10.332836151123047], ["жи", -10.33293628692627], ["kla", -10.33298397064209], ["୫", -10.333247184753418], ["فا", -10.333431243896484], ["▁gen", -10.33390998840332], ["▁பல", -10.333917617797852], ["▁दी", -10.333979606628418], ["ô", -10.334112167358398], ["ры", -10.334205627441406], ["意", -10.334542274475098], ["▁ljudi", -10.334563255310059], ["▁વિ", -10.33520793914795], ["್", -10.335262298583984], ["▁مت", -10.335428237915039], ["▁می‌شود", -10.33543872833252], ["ется", -10.335837364196777], ["ூ", -10.335869789123535], ["▁신", -10.33590030670166], ["２", -10.335991859436035], ["eur", -10.336006164550781], ["gang", -10.336036682128906], ["aus", -10.336189270019531], ["ico", -10.336196899414062], ["mai", -10.336297035217285], ["안", -10.336996078491211], ["ено", -10.337105751037598], ["οι", -10.337203025817871], ["▁هغه", -10.337505340576172], ["▁help", -10.337547302246094], ["▁करने", -10.33780574798584], ["કા", -10.337861061096191], ["했습니다", -10.337960243225098], ["λ", -10.337971687316895], ["lerin", -10.338007926940918], ["ડા", -10.33818244934082], ["pas", -10.33828353881836], ["▁46", -10.338480949401855], ["わ", -10.338780403137207], ["▁cs", -10.338889122009277], ["ዛ", -10.338900566101074], ["мер", -10.338964462280273], ["들", -10.339245796203613], ["mpi", -10.339590072631836], ["ટી", -10.339664459228516], ["ई", -10.3399019241333], ["раз", -10.34032917022705], ["▁yıl", -10.34068775177002], ["ኔ", -10.340761184692383], ["행", -10.34084701538086], ["ಚ", -10.340943336486816], ["ый", -10.340973854064941], ["î", -10.341116905212402], ["▁इसके", -10.341272354125977], ["ár", -10.341337203979492], ["ora", -10.341691017150879], ["стр", -10.341736793518066], ["cji", -10.341915130615234], ["▁bel", -10.342215538024902], ["▁united", -10.342317581176758], ["▁city", -10.342379570007324], ["gre", -10.342535018920898], ["kk", -10.342723846435547], ["टी", -10.343143463134766], ["▁zaidi", -10.343304634094238], ["▁svo", -10.343374252319336], ["名", -10.343429565429688], ["▁presidente", -10.343836784362793], ["▁pil", -10.343849182128906], ["▁этом", -10.34410572052002], ["▁jy", -10.34414005279541], ["▁పార్టీ", -10.344393730163574], ["▁έχει", -10.345152854919434], ["ының", -10.34518051147461], ["ena", -10.34522819519043], ["▁ši", -10.345512390136719], ["kwa", -10.345523834228516], ["عد", -10.345580101013184], ["dı", -10.345752716064453], ["▁ኢትዮጵያ", -10.345805168151855], ["ரு", -10.346158981323242], ["িয়ে", -10.346359252929688], ["bli", -10.34640884399414], ["ában", -10.346689224243164], ["ੱ", -10.346694946289062], ["ந்து", -10.346793174743652], ["tif", -10.346964836120605], ["▁ରହିଛି", -10.347027778625488], ["▁ರ", -10.347046852111816], ["▁kann", -10.347346305847168], ["▁soomaaliya", -10.34749984741211], ["دن", -10.34810733795166], ["вен", -10.348578453063965], ["sion", -10.34879207611084], ["▁baş", -10.348922729492188], ["▁مر", -10.349058151245117], ["▁μια", -10.349376678466797], ["డం", -10.349578857421875], ["ದಿಂದ", -10.349767684936523], ["▁ani", -10.349982261657715], ["▁رو", -10.350412368774414], ["來", -10.350427627563477], ["rg", -10.350578308105469], ["ović", -10.350621223449707], ["▁মো", -10.35077953338623], ["▁ε", -10.350896835327148], ["▁ora", -10.350960731506348], ["ір", -10.35122013092041], ["bili", -10.351249694824219], ["▁some", -10.351473808288574], ["▁الإ", -10.352043151855469], ["ിനെ", -10.352128982543945], ["انه", -10.352143287658691], ["rang", -10.352170944213867], ["▁bla", -10.352372169494629], ["对", -10.352386474609375], ["▁dedi", -10.352550506591797], ["▁dana", -10.352712631225586], ["lah", -10.352813720703125], ["તિ", -10.352887153625488], ["kö", -10.353141784667969], ["▁στον", -10.353175163269043], ["▁ર", -10.353236198425293], ["ੰ", -10.353358268737793], ["▁തന്നെ", -10.35360336303711], ["ov", -10.354146957397461], ["ист", -10.35429573059082], ["▁ర", -10.35435962677002], ["୩", -10.354508399963379], ["▁भारत", -10.354751586914062], ["ੜ", -10.355019569396973], ["সি", -10.355100631713867], ["▁வேண்டும்", -10.355145454406738], ["▁ла", -10.355271339416504], ["дай", -10.355907440185547], ["ًا", -10.356114387512207], ["ους", -10.356307029724121], ["▁மற்றும்", -10.356471061706543], ["▁شوی", -10.356660842895508], ["▁ଚ", -10.356668472290039], ["▁begin", -10.35710620880127], ["హ", -10.35727596282959], ["▁ges", -10.357474327087402], ["▁tuli", -10.357476234436035], ["ове", -10.357560157775879], ["ham", -10.357640266418457], ["યા", -10.35766315460205], ["ିକ", -10.358721733093262], ["▁i̇", -10.359305381774902], ["yan", -10.35949420928955], ["▁art", -10.359726905822754], ["sed", -10.360265731811523], ["dor", -10.360575675964355], ["니", -10.360760688781738], ["னி", -10.360823631286621], ["▁são", -10.36095905303955], ["▁ор", -10.361055374145508], ["ngo", -10.361058235168457], ["▁dei", -10.361120223999023], ["▁연", -10.361181259155273], ["اع", -10.361197471618652], ["着", -10.361730575561523], ["27", -10.361896514892578], ["▁brand", -10.361984252929688], ["▁fo", -10.362672805786133], ["лись", -10.362701416015625], ["▁tout", -10.363364219665527], ["▁400", -10.363375663757324], ["▁лет", -10.363402366638184], ["▁ü", -10.363414764404297], ["ează", -10.363492012023926], ["eli", -10.36380672454834], ["▁hun", -10.36388874053955], ["▁μ", -10.363993644714355], ["তি", -10.364354133605957], ["▁ava", -10.364400863647461], ["▁tr", -10.364635467529297], ["int", -10.364649772644043], ["ଣ୍ଡ", -10.364649772644043], ["ಟಿ", -10.36532974243164], ["ün", -10.365479469299316], ["▁ਕੁਝ", -10.365530014038086], ["▁ένα", -10.365822792053223], ["▁ਆਪਣੇ", -10.365830421447754], ["ис", -10.365954399108887], ["▁બાદ", -10.366058349609375], ["tic", -10.366382598876953], ["nun", -10.366384506225586], ["▁ਗ", -10.366386413574219], ["ட்டி", -10.366913795471191], ["āk", -10.367088317871094], ["ഴ", -10.367176055908203], ["kka", -10.367325782775879], ["وف", -10.367393493652344], ["for", -10.367402076721191], ["▁россии", -10.367504119873047], ["▁haben", -10.367818832397461], ["▁play", -10.367878913879395], ["▁mint", -10.368185043334961], ["▁मी", -10.368968963623047], ["taja", -10.368973731994629], ["ቁ", -10.369100570678711], ["▁ти", -10.369100570678711], ["▁menjadi", -10.36915111541748], ["▁تو", -10.369501113891602], ["▁olla", -10.369637489318848], ["▁ಆದರೆ", -10.36981201171875], ["୮", -10.36987590789795], ["▁43", -10.370942115783691], ["22", -10.370948791503906], ["▁देश", -10.370962142944336], ["ella", -10.370966911315918], ["▁ତାଙ୍କ", -10.371010780334473], ["▁ਰਿਹਾ", -10.371169090270996], ["bas", -10.371383666992188], ["▁hit", -10.371664047241211], ["кс", -10.37190055847168], ["tive", -10.372014999389648], ["▁ariko", -10.372206687927246], ["ική", -10.372320175170898], ["▁गए", -10.372590065002441], ["▁eerste", -10.372997283935547], ["▁köz", -10.373148918151855], ["ځ", -10.373150825500488], ["स्त", -10.373287200927734], ["mento", -10.373610496520996], ["teen", -10.374491691589355], ["శ", -10.37453842163086], ["▁الب", -10.374771118164062], ["▁μας", -10.375041007995605], ["性", -10.375255584716797], ["▁kla", -10.37541675567627], ["ыс", -10.375689506530762], ["тыр", -10.375807762145996], ["avo", -10.376160621643066], ["vy", -10.376306533813477], ["ನಾ", -10.376384735107422], ["▁2012", -10.376830101013184], ["▁وزارت", -10.376835823059082], ["νο", -10.377554893493652], ["▁ye", -10.377580642700195], ["▁ଗ", -10.377683639526367], ["ಂದ", -10.377690315246582], ["▁satu", -10.377899169921875], ["▁کا", -10.378020286560059], ["ela", -10.378586769104004], ["▁koja", -10.378704071044922], ["mon", -10.378989219665527], ["tir", -10.379138946533203], ["▁یا", -10.379345893859863], ["lus", -10.379430770874023], ["次", -10.3799409866333], ["اس", -10.380106925964355], ["أ", -10.380213737487793], ["ssä", -10.380419731140137], ["▁ас", -10.380634307861328], ["▁শ", -10.380646705627441], ["ξ", -10.38075065612793], ["ത്തിൽ", -10.380779266357422], ["▁välja", -10.380908966064453], ["вед", -10.381024360656738], ["▁топ", -10.381298065185547], ["ult", -10.381409645080566], ["▁werd", -10.381701469421387], ["▁sar", -10.38210391998291], ["能", -10.382192611694336], ["ência", -10.382231712341309], ["23", -10.382281303405762], ["ং", -10.382608413696289], ["જા", -10.382712364196777], ["ப்பட்ட", -10.382915496826172], ["▁시", -10.382919311523438], ["mā", -10.38293743133545], ["▁ur", -10.383256912231445], ["үп", -10.383450508117676], ["kun", -10.383639335632324], ["見", -10.383745193481445], ["신", -10.383888244628906], ["area", -10.38393783569336], ["αρ", -10.384306907653809], ["ικό", -10.384696960449219], ["నీ", -10.385005950927734], ["▁வ", -10.385223388671875], ["mel", -10.385380744934082], ["▁ए", -10.385830879211426], ["最", -10.385992050170898], ["▁треба", -10.385994911193848], ["▁ел", -10.385998725891113], ["σε", -10.386064529418945], ["ల్లో", -10.386242866516113], ["▁अब", -10.386445999145508], ["zie", -10.386473655700684], ["سم", -10.386651039123535], ["28", -10.386812210083008], ["▁دولت", -10.386934280395508], ["log", -10.386975288391113], ["ορ", -10.387107849121094], ["▁unter", -10.38723373413086], ["ദ", -10.387238502502441], ["ഡ", -10.387365341186523], ["کار", -10.387408256530762], ["ପି", -10.387431144714355], ["▁പറഞ്ഞു", -10.387438774108887], ["▁vastu", -10.387473106384277], ["ران", -10.387786865234375], ["▁bih", -10.38831615447998], ["▁εκ", -10.388339042663574], ["ावर", -10.388516426086426], ["▁உள்ள", -10.38852596282959], ["▁ਦੀਆਂ", -10.388921737670898], ["▁пот", -10.388941764831543], ["ર્", -10.388947486877441], ["▁ф", -10.388998031616211], ["ሻ", -10.389439582824707], ["ዩ", -10.389880180358887], ["▁ан", -10.389904975891113], ["alla", -10.389921188354492], ["ನ್ನು", -10.390484809875488], ["▁mehr", -10.39055061340332], ["▁meng", -10.390752792358398], ["pak", -10.390824317932129], ["▁normal", -10.390847206115723], ["વાર", -10.391148567199707], ["▁ఒక", -10.391314506530762], ["▁team", -10.391318321228027], ["▁말", -10.391613006591797], ["nden", -10.392202377319336], ["▁mwa", -10.392500877380371], ["▁लोक", -10.392524719238281], ["▁loc", -10.392765045166016], ["ंद", -10.39291763305664], ["民", -10.393043518066406], ["▁ਗਈ", -10.393070220947266], ["▁our", -10.39340877532959], ["నా", -10.39364242553711], ["гө", -10.393948554992676], ["टा", -10.394652366638184], ["ють", -10.394723892211914], ["ਖ", -10.395393371582031], ["୨", -10.395530700683594], ["पुर", -10.395645141601562], ["ത്തിന്", -10.395671844482422], ["εται", -10.395902633666992], ["▁czy", -10.396203994750977], ["▁hii", -10.396254539489746], ["बा", -10.396424293518066], ["▁kö", -10.39655876159668], ["▁ባ", -10.396719932556152], ["▁ଇ", -10.396848678588867], ["美", -10.397247314453125], ["▁bro", -10.39732551574707], ["set", -10.397624015808105], ["yk", -10.39770221710205], ["▁στις", -10.397802352905273], ["▁няма", -10.397947311401367], ["▁ఓ", -10.398503303527832], ["day", -10.398663520812988], ["마", -10.398775100708008], ["▁там", -10.399251937866211], ["▁які", -10.399271965026855], ["여", -10.399539947509766], ["▁کړې", -10.399557113647461], ["సి", -10.399603843688965], ["pra", -10.399641990661621], ["hd", -10.399823188781738], ["▁ಅವರ", -10.399892807006836], ["gro", -10.400227546691895], ["▁kuna", -10.400242805480957], ["yı", -10.400248527526855], ["صر", -10.400391578674316], ["▁ਸ਼", -10.400665283203125], ["▁року", -10.401822090148926], ["ጽ", -10.401823043823242], ["▁анын", -10.402801513671875], ["▁الق", -10.402981758117676], ["開", -10.403481483459473], ["ıyor", -10.403556823730469], ["都", -10.403712272644043], ["्र", -10.403764724731445], ["▁વધુ", -10.404216766357422], ["立", -10.404391288757324], ["▁air", -10.404415130615234], ["با", -10.404537200927734], ["ische", -10.404640197753906], ["▁اس", -10.40467357635498], ["입니다", -10.40474796295166], ["▁wame", -10.404873847961426], ["▁daug", -10.40490436553955], ["ିଆ", -10.40491008758545], ["▁150", -10.404932975769043], ["▁cla", -10.404939651489258], ["▁эмес", -10.405052185058594], ["ತ್", -10.4053373336792], ["▁त्यांच्या", -10.405386924743652], ["▁grup", -10.40544605255127], ["یان", -10.405555725097656], ["▁చేశారు", -10.40570068359375], ["▁حال", -10.406071662902832], ["вод", -10.406331062316895], ["ving", -10.406482696533203], ["▁treba", -10.406561851501465], ["▁2.", -10.406574249267578], ["िया", -10.406620025634766], ["vē", -10.40667724609375], ["▁juli", -10.406889915466309], ["ښ", -10.40695571899414], ["ുള്ള", -10.407005310058594], ["дел", -10.407147407531738], ["ലി", -10.407172203063965], ["▁الس", -10.407355308532715], ["▁también", -10.407422065734863], ["ші", -10.407734870910645], ["ingen", -10.407962799072266], ["▁rela", -10.40800952911377], ["ści", -10.408320426940918], ["સ્ટ", -10.408432006835938], ["경", -10.408543586730957], ["inni", -10.408589363098145], ["ଥିଲା", -10.408767700195312], ["नं", -10.408919334411621], ["ਥ", -10.40931510925293], ["το", -10.409452438354492], ["▁ಬಗ್ಗೆ", -10.40948486328125], ["▁ಆಗ", -10.40960693359375], ["▁tad", -10.409608840942383], ["ус", -10.409716606140137], ["▁ken", -10.409722328186035], ["面", -10.409798622131348], ["sema", -10.409910202026367], ["▁хабарлайды", -10.409960746765137], ["lī", -10.410175323486328], ["▁nap", -10.410243034362793], ["▁ለማ", -10.410523414611816], ["ным", -10.41060733795166], ["نو", -10.410646438598633], ["enie", -10.411105155944824], ["ntu", -10.411201477050781], ["rem", -10.411247253417969], ["னை", -10.411442756652832], ["▁ин", -10.411486625671387], ["اف", -10.4114990234375], ["들이", -10.411733627319336], ["ob", -10.411881446838379], ["35", -10.412064552307129], ["▁oko", -10.412066459655762], ["alt", -10.412190437316895], ["ciones", -10.412214279174805], ["▁indi", -10.412229537963867], ["▁projekt", -10.412424087524414], ["▁kwamba", -10.412435531616211], ["▁وأ", -10.412467002868652], ["▁sein", -10.41262149810791], ["የ", -10.41268253326416], ["▁ये", -10.412753105163574], ["aji", -10.413000106811523], ["▁magyar", -10.413321495056152], ["れ", -10.413370132446289], ["▁баш", -10.413664817810059], ["▁tempo", -10.414013862609863], ["▁लोगों", -10.414031982421875], ["ала", -10.414204597473145], ["▁wakati", -10.414233207702637], ["▁اما", -10.414337158203125], ["▁waa", -10.414653778076172], ["ଭ", -10.414719581604004], ["▁show", -10.414756774902344], ["▁کوي", -10.414812088012695], ["å", -10.414813041687012], ["об", -10.414860725402832], ["点", -10.414894104003906], ["▁lebih", -10.41490650177002], ["▁ковид", -10.414928436279297], ["▁жан", -10.414972305297852], ["文", -10.415169715881348], ["▁парламент", -10.4153413772583], ["▁spe", -10.415420532226562], ["며", -10.41545295715332], ["主", -10.4155912399292], ["టీ", -10.415688514709473], ["fo", -10.415994644165039], ["▁дел", -10.41606616973877], ["▁аз", -10.416109085083008], ["▁కరోనా", -10.416175842285156], ["▁mari", -10.416211128234863], ["നി", -10.416241645812988], ["▁przez", -10.416399955749512], ["olo", -10.41646671295166], ["ario", -10.416513442993164], ["க்கும்", -10.416643142700195], ["дү", -10.416667938232422], ["ина", -10.416810035705566], ["金", -10.417269706726074], ["ቲ", -10.417275428771973], ["▁મા", -10.417284965515137], ["▁মধ্যে", -10.417491912841797], ["▁এর", -10.417664527893066], ["▁madrid", -10.417956352233887], ["▁dur", -10.41800594329834], ["▁அரசு", -10.418068885803223], ["igen", -10.41828727722168], ["చ", -10.418478965759277], ["ાઇ", -10.418621063232422], ["০", -10.41864013671875], ["ଡି", -10.418774604797363], ["ња", -10.419382095336914], ["▁paul", -10.419384002685547], ["▁ഗ", -10.419535636901855], ["▁ହ", -10.419777870178223], ["▁mer", -10.419797897338867], ["マ", -10.419870376586914], ["▁einen", -10.419973373413086], ["▁prin", -10.420194625854492], ["▁france", -10.420434951782227], ["ಟ್ಟ", -10.420622825622559], ["lay", -10.421100616455078], ["▁ಜ", -10.421239852905273], ["▁ബ", -10.421329498291016], ["ാൻ", -10.42139720916748], ["▁sei", -10.421479225158691], ["▁zum", -10.42149829864502], ["▁ଭ", -10.421594619750977], ["▁when", -10.421704292297363], ["ሞ", -10.421771049499512], ["▁হ", -10.422027587890625], ["hou", -10.42247200012207], ["ίας", -10.422962188720703], ["▁gün", -10.423158645629883], ["lam", -10.423287391662598], ["ങ്ങൾ", -10.423357963562012], ["adda", -10.423624992370605], ["▁선", -10.423894882202148], ["ಕ್ಷ", -10.424344062805176], ["之", -10.424431800842285], ["▁cri", -10.424449920654297], ["ൊ", -10.424613952636719], ["ଂ", -10.42480754852295], ["sak", -10.424920082092285], ["▁baada", -10.424966812133789], ["hl", -10.425057411193848], ["வில்", -10.425225257873535], ["far", -10.42542552947998], ["бай", -10.425618171691895], ["▁pelo", -10.425692558288574], ["ими", -10.42578125], ["▁ny", -10.425786972045898], ["▁ነበር።", -10.426085472106934], ["ക്", -10.426244735717773], ["▁einer", -10.426363945007324], ["▁waxay", -10.42678165435791], ["▁pop", -10.426966667175293], ["uda", -10.427142143249512], ["ண்ட", -10.4271821975708], ["▁ਲੋਕਾਂ", -10.427266120910645], ["▁mr", -10.427279472351074], ["rek", -10.427390098571777], ["ಜ", -10.427488327026367], ["▁suur", -10.427492141723633], ["▁form", -10.427706718444824], ["િત", -10.427746772766113], ["rah", -10.428398132324219], ["stä", -10.428499221801758], ["itu", -10.428597450256348], ["物", -10.428720474243164], ["ांना", -10.428814888000488], ["ві", -10.429163932800293], ["▁із", -10.429180145263672], ["kke", -10.429197311401367], ["▁ки", -10.429296493530273], ["▁governo", -10.429750442504883], ["▁закон", -10.429880142211914], ["ுக்கு", -10.42995548248291], ["▁କି", -10.430042266845703], ["▁wordt", -10.430132865905762], ["▁þegar", -10.430181503295898], ["ğı", -10.430197715759277], ["пен", -10.43019962310791], ["호", -10.43051815032959], ["ssen", -10.430559158325195], ["▁tom", -10.430573463439941], ["▁mengatakan", -10.431154251098633], ["▁मात्र", -10.43134880065918], ["dur", -10.431748390197754], ["ення", -10.431792259216309], ["али", -10.431950569152832], ["▁susi", -10.431982040405273], ["tima", -10.431986808776855], ["nger", -10.432125091552734], ["起", -10.432125091552734], ["اج", -10.43217945098877], ["ラ", -10.432218551635742], ["▁биде", -10.432233810424805], ["ভ", -10.432493209838867], ["ाचा", -10.432516098022461], ["ien", -10.432740211486816], ["▁tačiau", -10.433062553405762], ["ынан", -10.43367862701416], ["운", -10.433708190917969], ["▁тууралуу", -10.433758735656738], ["▁একটি", -10.43383502960205], ["▁чейин", -10.434080123901367], ["સી", -10.434240341186523], ["▁లో", -10.434442520141602], ["▁ਦਿੱਤਾ", -10.434731483459473], ["▁olan", -10.434796333312988], ["▁1000", -10.434871673583984], ["▁telah", -10.434948921203613], ["▁klub", -10.435171127319336], ["▁serikali", -10.435220718383789], ["ष", -10.43587589263916], ["tien", -10.43591594696045], ["▁47", -10.435945510864258], ["▁ਸਿੰਘ", -10.436037063598633], ["▁cum", -10.436915397644043], ["જી", -10.437076568603516], ["▁जो", -10.437198638916016], ["kli", -10.437225341796875], ["同", -10.43757152557373], ["▁ਸਰਕਾਰ", -10.438150405883789], ["وان", -10.4381742477417], ["▁how", -10.438237190246582], ["વામાં", -10.43834400177002], ["уваат", -10.438450813293457], ["▁acc", -10.438642501831055], ["▁tanzania", -10.438647270202637], ["ంట", -10.438680648803711], ["▁šo", -10.438811302185059], ["▁vez", -10.439537048339844], ["ще", -10.439838409423828], ["▁kus", -10.440004348754883], ["ജി", -10.44009780883789], ["▁diz", -10.440120697021484], ["ө", -10.440164566040039], ["▁yfir", -10.440192222595215], ["ula", -10.440442085266113], ["▁alisema", -10.441798210144043], ["▁मा", -10.44190788269043], ["ιν", -10.44201374053955], ["▁народ", -10.442423820495605], ["ая", -10.4428071975708], ["ായിരുന്നു", -10.443082809448242], ["▁ይህ", -10.44312572479248], ["uoti", -10.443325996398926], ["bil", -10.443446159362793], ["▁көз", -10.443745613098145], ["▁бала", -10.443815231323242], ["す", -10.444012641906738], ["水", -10.444058418273926], ["ję", -10.44416332244873], ["▁hasta", -10.444656372070312], ["▁й", -10.44487476348877], ["кы", -10.44554615020752], ["▁ന", -10.445588111877441], ["ற்ற", -10.445647239685059], ["▁protiv", -10.445792198181152], ["中國", -10.445839881896973], ["▁ήταν", -10.446196556091309], ["▁nepa", -10.446220397949219], ["▁home", -10.446250915527344], ["inti", -10.446252822875977], ["үү", -10.44629955291748], ["ଷ", -10.446624755859375], ["▁desde", -10.44677448272705], ["▁like", -10.44709300994873], ["▁év", -10.447271347045898], ["gia", -10.447386741638184], ["▁ра", -10.447466850280762], ["문", -10.447538375854492], ["dat", -10.44754409790039], ["▁κατα", -10.447565078735352], ["▁ер", -10.448281288146973], ["▁ту", -10.448302268981934], ["ette", -10.448616027832031], ["ijos", -10.448676109313965], ["રો", -10.448798179626465], ["▁mkuu", -10.448805809020996], ["▁እየ", -10.449320793151855], ["▁dié", -10.449365615844727], ["▁আর", -10.449434280395508], ["▁х", -10.449686050415039], ["▁roku", -10.449790000915527], ["lei", -10.449821472167969], ["영", -10.449945449829102], ["▁ಮು", -10.450113296508789], ["▁сөз", -10.450164794921875], ["eb", -10.45033073425293], ["дей", -10.45048713684082], ["히", -10.450643539428711], ["lama", -10.45109748840332], ["▁کم", -10.451141357421875], ["ଭା", -10.451258659362793], ["▁கு", -10.451584815979004], ["lat", -10.45161247253418], ["ବି", -10.451778411865234], ["hti", -10.452155113220215], ["▁પા", -10.452252388000488], ["▁тест", -10.452275276184082], ["rar", -10.452502250671387], ["сында", -10.452594757080078], ["sso", -10.453079223632812], ["▁muito", -10.453156471252441], ["▁telefon", -10.453167915344238], ["▁yi", -10.45333480834961], ["▁hin", -10.45339584350586], ["▁ಬಿ", -10.453397750854492], ["得", -10.453435897827148], ["向", -10.453466415405273], ["ű", -10.453557968139648], ["idade", -10.45361042022705], ["ación", -10.453630447387695], ["вр", -10.45388412475586], ["લો", -10.453997611999512], ["ван", -10.454193115234375], ["三", -10.454280853271484], ["▁மா", -10.454507827758789], ["▁bien", -10.454566955566406], ["களுக்கு", -10.454587936401367], ["йт", -10.45462417602539], ["ине", -10.454753875732422], ["▁grad", -10.454936981201172], ["▁жер", -10.455013275146484], ["▁ଏବେ", -10.455185890197754], ["тің", -10.455248832702637], ["fin", -10.455360412597656], ["▁isso", -10.455400466918945], ["ür", -10.45543098449707], ["▁ብለዋል።", -10.455506324768066], ["▁무", -10.455615997314453], ["ெ", -10.455657005310059], ["▁după", -10.455798149108887], ["പി", -10.455879211425781], ["vien", -10.455945014953613], ["కా", -10.45598030090332], ["می", -10.456292152404785], ["▁može", -10.456314086914062], ["یی", -10.456425666809082], ["ünk", -10.456611633300781], ["▁ide", -10.456676483154297], ["takse", -10.456772804260254], ["ψ", -10.456877708435059], ["▁brasil", -10.456892013549805], ["mia", -10.456950187683105], ["rzy", -10.457282066345215], ["▁türkiye", -10.457308769226074], ["cı", -10.457401275634766], ["кан", -10.457428932189941], ["nji", -10.457582473754883], ["▁спорт", -10.457742691040039], ["وت", -10.457907676696777], ["▁kenya", -10.45803451538086], ["▁end", -10.458146095275879], ["лган", -10.458163261413574], ["▁ભ", -10.458250045776367], ["পুর", -10.458313941955566], ["ಂಡ", -10.458429336547852], ["ಲ್ಲಿ", -10.458625793457031], ["▁ബിജെപി", -10.458734512329102], ["eld", -10.459096908569336], ["▁সঙ্গে", -10.459128379821777], ["▁viime", -10.459335327148438], ["čių", -10.459465980529785], ["ளி", -10.459648132324219], ["bit", -10.459741592407227], ["▁ਨਾ", -10.459925651550293], ["▁fal", -10.46002197265625], ["▁long", -10.460163116455078], ["▁sou", -10.460369110107422], ["▁ሲሆን", -10.460500717163086], ["▁tor", -10.460649490356445], ["ಷ", -10.460686683654785], ["ние", -10.460705757141113], ["के", -10.461038589477539], ["▁hem", -10.461045265197754], ["▁fait", -10.461084365844727], ["nal", -10.461555480957031], ["mor", -10.462125778198242], ["▁каза", -10.462128639221191], ["ną", -10.462135314941406], ["▁dom", -10.462471961975098], ["öl", -10.462519645690918], ["▁mara", -10.462519645690918], ["▁motor", -10.462562561035156], ["bia", -10.462656021118164], ["مي", -10.462684631347656], ["▁kaže", -10.463001251220703], ["▁ela", -10.46301555633545], ["قي", -10.463081359863281], ["లకు", -10.463095664978027], ["фи", -10.463149070739746], ["▁live", -10.463314056396484], ["dia", -10.46388053894043], ["▁കെ", -10.463923454284668], ["pal", -10.463958740234375], ["▁ham", -10.46403694152832], ["ров", -10.46413516998291], ["量", -10.464144706726074], ["▁godina", -10.46431827545166], ["সহ", -10.464354515075684], ["▁አል", -10.46444034576416], ["▁sasa", -10.464638710021973], ["ੌ", -10.464740753173828], ["▁пра", -10.464969635009766], ["▁copyright", -10.465153694152832], ["сыз", -10.465171813964844], ["▁perc", -10.46520709991455], ["पा", -10.465312957763672], ["被", -10.46531867980957], ["▁visi", -10.465544700622559], ["లా", -10.46563720703125], ["ಭ", -10.465829849243164], ["ige", -10.466118812561035], ["யும்", -10.466275215148926], ["ade", -10.466381072998047], ["80", -10.466486930847168], ["دو", -10.466697692871094], ["00", -10.467028617858887], ["▁goed", -10.467034339904785], ["િંગ", -10.467146873474121], ["▁mah", -10.467439651489258], ["ዲ", -10.467545509338379], ["▁بن", -10.467596054077148], ["ഡ്", -10.467609405517578], ["୭", -10.467613220214844], ["inių", -10.467683792114258], ["gus", -10.467885971069336], ["ጅ", -10.468023300170898], ["▁tõ", -10.468134880065918], ["ਮੀ", -10.468222618103027], ["▁aux", -10.46830940246582], ["menn", -10.468317031860352], ["ket", -10.468584060668945], ["στ", -10.468701362609863], ["ನ್ನ", -10.4688081741333], ["ved", -10.468836784362793], ["sies", -10.468915939331055], ["▁52", -10.46894645690918], ["▁rwa", -10.468958854675293], ["▁kl", -10.469106674194336], ["ጫ", -10.469181060791016], ["▁சு", -10.46932601928711], ["▁ako", -10.46937084197998], ["▁министр", -10.46971321105957], ["ډ", -10.469714164733887], ["кен", -10.469939231872559], ["osta", -10.469953536987305], ["▁kuva", -10.470002174377441], ["ಾಗಿ", -10.470083236694336], ["▁மு", -10.470141410827637], ["گی", -10.470438003540039], ["▁turi", -10.470617294311523], ["▁avuga", -10.470690727233887], ["amento", -10.470734596252441], ["λα", -10.470949172973633], ["▁ਖ", -10.47096061706543], ["▁ven", -10.471146583557129], ["۵", -10.471227645874023], ["kku", -10.471600532531738], ["▁partner", -10.471611022949219], ["▁ନି", -10.471721649169922], ["het", -10.471848487854004], ["રે", -10.471863746643066], ["ाची", -10.471878051757812], ["išk", -10.47192668914795], ["▁sc", -10.471956253051758], ["जी", -10.472267150878906], ["▁fre", -10.472332000732422], ["▁сп", -10.472339630126953], ["ért", -10.472610473632812], ["য়ে", -10.472672462463379], ["oma", -10.47327995300293], ["ρο", -10.473508834838867], ["ance", -10.473831176757812], ["дағы", -10.473910331726074], ["vir", -10.474004745483398], ["يات", -10.474217414855957], ["금", -10.47421932220459], ["▁hilo", -10.474453926086426], ["rije", -10.474493026733398], ["ിരുന്നു", -10.474658012390137], ["యం", -10.474992752075195], ["▁want", -10.475447654724121], ["யின்", -10.47571086883545], ["▁হা", -10.47592830657959], ["カ", -10.476052284240723], ["uku", -10.476173400878906], ["ோ", -10.47645378112793], ["▁sebagai", -10.476635932922363], ["gri", -10.476838111877441], ["所", -10.476856231689453], ["ką", -10.477310180664062], ["চ", -10.477396011352539], ["▁چ", -10.477399826049805], ["மி", -10.477750778198242], ["ная", -10.477835655212402], ["ták", -10.477882385253906], ["▁mad", -10.4779634475708], ["▁other", -10.478100776672363], ["▁mensen", -10.478248596191406], ["▁sezon", -10.478255271911621], ["▁abi", -10.478326797485352], ["जा", -10.478483200073242], ["▁실", -10.478555679321289], ["سی", -10.478655815124512], ["▁তাদের", -10.47876262664795], ["त्र", -10.478781700134277], ["▁tud", -10.478897094726562], ["iert", -10.479114532470703], ["ક્", -10.479188919067383], ["tung", -10.479474067687988], ["說", -10.479694366455078], ["iwa", -10.479724884033203], ["ኪ", -10.479840278625488], ["道", -10.479887962341309], ["дун", -10.479941368103027], ["cent", -10.479975700378418], ["▁opera", -10.480303764343262], ["▁இது", -10.480324745178223], ["ኮ", -10.480386734008789], ["▁49", -10.480707168579102], ["zet", -10.480780601501465], ["vuga", -10.480839729309082], ["▁dra", -10.480949401855469], ["▁상", -10.481056213378906], ["▁ара", -10.48167610168457], ["liku", -10.481679916381836], ["ట్లు", -10.481698036193848], ["▁قرار", -10.481722831726074], ["▁av", -10.481743812561035], ["ਵਾਂ", -10.481755256652832], ["무", -10.482382774353027], ["▁ਗਏ", -10.482449531555176], ["▁হয়ে", -10.482481002807617], ["▁todo", -10.48258113861084], ["▁глав", -10.482616424560547], ["▁oleh", -10.482876777648926], ["▁того", -10.482967376708984], ["rez", -10.48337459564209], ["▁ਸਾਲ", -10.483443260192871], ["ewe", -10.483550071716309], ["୪", -10.4835844039917], ["μπ", -10.483640670776367], ["zr", -10.48373794555664], ["▁ami", -10.48376750946045], ["kr", -10.483777046203613], ["▁بم", -10.483789443969727], ["esta", -10.483861923217773], ["भ", -10.483902931213379], ["▁불", -10.484221458435059], ["్యా", -10.48426628112793], ["elt", -10.484512329101562], ["av", -10.484724044799805], ["tą", -10.484943389892578], ["▁pass", -10.484947204589844], ["▁two", -10.48509407043457], ["ρε", -10.485108375549316], ["iku", -10.485411643981934], ["kre", -10.485506057739258], ["▁кол", -10.485577583312988], ["▁mense", -10.485608100891113], ["▁né", -10.485950469970703], ["ър", -10.486242294311523], ["安", -10.486299514770508], ["णी", -10.486472129821777], ["ικά", -10.486473083496094], ["打", -10.486531257629395], ["ας", -10.486556053161621], ["вър", -10.486645698547363], ["கா", -10.486675262451172], ["نج", -10.486903190612793], ["ಕೆ", -10.486942291259766], ["ులు", -10.487014770507812], ["оз", -10.48710823059082], ["َ", -10.487173080444336], ["▁него", -10.4879732131958], ["ዕ", -10.488022804260254], ["ых", -10.488195419311523], ["ασ", -10.48841667175293], ["▁лица", -10.488880157470703], ["▁코로나", -10.488938331604004], ["ధ", -10.489325523376465], ["डी", -10.489432334899902], ["▁puntland", -10.489799499511719], ["개", -10.490104675292969], ["ધ", -10.49095344543457], ["دل", -10.491060256958008], ["ούν", -10.491122245788574], ["▁केला", -10.491621971130371], ["▁ಸಂ", -10.491724967956543], ["ιο", -10.492252349853516], ["▁csak", -10.492387771606445], ["▁ਕੋਈ", -10.492563247680664], ["dri", -10.49256706237793], ["▁delle", -10.492877006530762], ["说", -10.492897033691406], ["nā", -10.493000984191895], ["ाय", -10.493544578552246], ["ской", -10.493842124938965], ["شر", -10.493905067443848], ["我", -10.493973731994629], ["▁تیم", -10.494083404541016], ["▁mhz", -10.49411678314209], ["дык", -10.494203567504883], ["वी", -10.494485855102539], ["ants", -10.494824409484863], ["pol", -10.49484920501709], ["▁minu", -10.49513053894043], ["▁당", -10.495161056518555], ["▁నా", -10.495649337768555], ["jų", -10.495781898498535], ["▁best", -10.495866775512695], ["ሁ", -10.49611759185791], ["▁года", -10.496563911437988], ["یو", -10.496706008911133], ["▁két", -10.49672794342041], ["في", -10.497071266174316], ["иш", -10.497368812561035], ["லா", -10.4976167678833], ["don", -10.49858283996582], ["▁చేయ", -10.498800277709961], ["▁сите", -10.498929023742676], ["ಧ", -10.499399185180664], ["▁rat", -10.499558448791504], ["ক্ষ", -10.499673843383789], ["▁રહી", -10.49975872039795], ["▁град", -10.499994277954102], ["▁다", -10.500030517578125], ["▁uko", -10.500484466552734], ["ሃ", -10.500816345214844], ["▁tras", -10.5010347366333], ["▁राज्य", -10.501404762268066], ["قا", -10.501418113708496], ["ļu", -10.501620292663574], ["бр", -10.50247859954834], ["▁kala", -10.502532005310059], ["▁będzie", -10.502787590026855], ["▁open", -10.5028076171875], ["▁தி", -10.503564834594727], ["ph", -10.50358772277832], ["▁last", -10.503799438476562], ["▁baru", -10.503929138183594], ["▁оның", -10.504125595092773], ["▁uni", -10.504616737365723], ["mie", -10.504633903503418], ["▁الش", -10.504660606384277], ["では", -10.50472354888916], ["ții", -10.505199432373047], ["▁dalka", -10.50556755065918], ["ır", -10.505839347839355], ["▁নি", -10.505925178527832], ["▁दिन", -10.506022453308105], ["dio", -10.506053924560547], ["▁somalia", -10.50619888305664], ["▁park", -10.5062837600708], ["▁einem", -10.506479263305664], ["▁vid", -10.506555557250977], ["ія", -10.506665229797363], ["иот", -10.506686210632324], ["▁proces", -10.50684642791748], ["tv", -10.507061004638672], ["▁úr", -10.507122993469238], ["▁አዲስ", -10.507155418395996], ["▁vasta", -10.507205963134766], ["usa", -10.507266998291016], ["gor", -10.507320404052734], ["물", -10.507384300231934], ["olu", -10.50778865814209], ["▁april", -10.508305549621582], ["вар", -10.508362770080566], ["▁labai", -10.508450508117676], ["▁مخ", -10.508831024169922], ["▁една", -10.508914947509766], ["▁የመ", -10.508953094482422], ["▁bay", -10.508970260620117], ["▁badan", -10.508974075317383], ["▁baba", -10.509023666381836], ["▁roma", -10.509202003479004], ["▁israel", -10.509495735168457], ["법", -10.510176658630371], ["lara", -10.510260581970215], ["▁ina", -10.510276794433594], ["▁would", -10.510320663452148], ["▁dire", -10.51060962677002], ["dhi", -10.511115074157715], ["eket", -10.511248588562012], ["రో", -10.511395454406738], ["▁day", -10.5114107131958], ["mm", -10.51141357421875], ["▁kontrol", -10.51165771484375], ["▁kuin", -10.511844635009766], ["лик", -10.5120267868042], ["साठी", -10.51218318939209], ["سا", -10.512577056884766], ["▁kod", -10.512614250183105], ["otta", -10.512701034545898], ["رم", -10.512740135192871], ["▁gegen", -10.512767791748047], ["▁ако", -10.512805938720703], ["neet", -10.513082504272461], ["▁ਪ੍ਰ", -10.513238906860352], ["jó", -10.513264656066895], ["να", -10.5133056640625], ["mini", -10.513386726379395], ["▁해", -10.513415336608887], ["unda", -10.513432502746582], ["▁ନାହିଁ", -10.5134916305542], ["▁প", -10.513547897338867], ["▁오", -10.513681411743164], ["tina", -10.513725280761719], ["ില", -10.514020919799805], ["▁momento", -10.514069557189941], ["хо", -10.514135360717773], ["wor", -10.514144897460938], ["▁quando", -10.514166831970215], ["nci", -10.514275550842285], ["ാം", -10.514337539672852], ["tī", -10.514351844787598], ["ారని", -10.514434814453125], ["には", -10.514556884765625], ["村", -10.514673233032227], ["ök", -10.514748573303223], ["▁۳", -10.514784812927246], ["про", -10.515153884887695], ["▁ክልል", -10.515264511108398], ["گاه", -10.51534366607666], ["▁sü", -10.515567779541016], ["କ୍ଷ", -10.515766143798828], ["ls", -10.516433715820312], ["▁સં", -10.516457557678223], ["ingu", -10.516777992248535], ["kki", -10.517081260681152], ["라고", -10.517280578613281], ["▁اليوم", -10.51730728149414], ["▁സി", -10.517561912536621], ["▁pl", -10.517658233642578], ["pon", -10.517861366271973], ["▁жа", -10.517996788024902], ["▁fac", -10.518129348754883], ["ében", -10.51814079284668], ["▁απ", -10.518254280090332], ["▁adalah", -10.518336296081543], ["▁broj", -10.518363952636719], ["▁mora", -10.51842212677002], ["ನೇ", -10.518614768981934], ["jum", -10.518929481506348], ["тель", -10.518933296203613], ["▁через", -10.519163131713867], ["연", -10.51926326751709], ["▁በተ", -10.519289016723633], ["▁exp", -10.519369125366211], ["дө", -10.519726753234863], ["тал", -10.51991081237793], ["▁ਬਾਰੇ", -10.520031929016113], ["iu", -10.520065307617188], ["ിലെ", -10.520180702209473], ["وز", -10.520208358764648], ["‌లో", -10.520345687866211], ["制", -10.520503044128418], ["간", -10.520782470703125], ["ஷ", -10.520882606506348], ["উ", -10.520999908447266], ["▁vita", -10.521295547485352], ["▁केलं", -10.521342277526855], ["▁ஆனால்", -10.521438598632812], ["▁پی", -10.521484375], ["▁general", -10.52171516418457], ["当", -10.521784782409668], ["ция", -10.521841049194336], ["ował", -10.522255897521973], ["уға", -10.522444725036621], ["ndu", -10.522628784179688], ["▁jan", -10.522740364074707], ["jel", -10.523066520690918], ["▁여", -10.52306842803955], ["ò", -10.5231294631958], ["ുവ", -10.52341365814209], ["мет", -10.52349853515625], ["ُ", -10.523574829101562], ["ਟੀ", -10.523710250854492], ["ип", -10.523933410644531], ["▁ਤੱਕ", -10.523945808410645], ["шу", -10.52397632598877], ["▁кој", -10.52404499053955], ["ρά", -10.524130821228027], ["▁ಸಾ", -10.524446487426758], ["ವೇ", -10.52471923828125], ["▁nagy", -10.525105476379395], ["▁पहले", -10.52520751953125], ["ಬೇಕು", -10.525285720825195], ["iya", -10.525351524353027], ["തര", -10.525385856628418], ["جا", -10.525630950927734], ["▁deve", -10.525697708129883], ["fanya", -10.525897026062012], ["민", -10.526104927062988], ["ек", -10.526154518127441], ["▁due", -10.526156425476074], ["중", -10.526269912719727], ["lj", -10.526422500610352], ["▁suo", -10.527099609375], ["▁દ્વારા", -10.527138710021973], ["▁vr", -10.527149200439453], ["dži", -10.52718734741211], ["ቤ", -10.527288436889648], ["▁التي", -10.527655601501465], ["ବେ", -10.527950286865234], ["間", -10.527989387512207], ["▁સુધી", -10.528051376342773], ["▁töö", -10.528560638427734], ["目", -10.528627395629883], ["кі", -10.528814315795898], ["▁май", -10.52921199798584], ["▁sko", -10.52991771697998], ["ība", -10.530179023742676], ["▁भ", -10.530217170715332], ["عة", -10.530267715454102], ["sam", -10.53032398223877], ["și", -10.530376434326172], ["▁fri", -10.530454635620117], ["роб", -10.530558586120605], ["jon", -10.530721664428711], ["▁त", -10.530802726745605], ["llo", -10.530837059020996], ["selt", -10.530900001525879], ["ï", -10.531074523925781], ["▁ਕਈ", -10.531118392944336], ["еді", -10.531152725219727], ["▁iş", -10.531187057495117], ["କା", -10.531404495239258], ["▁mei", -10.531469345092773], ["ଖ", -10.532089233398438], ["osi", -10.532249450683594], ["ging", -10.532474517822266], ["وار", -10.5325345993042], ["inde", -10.53264045715332], ["minen", -10.532830238342285], ["▁ଥିବା", -10.533019065856934], ["▁perezida", -10.533589363098145], ["▁god", -10.533720016479492], ["से", -10.533815383911133], ["▁anni", -10.533966064453125], ["tig", -10.534377098083496], ["▁ਲ", -10.534430503845215], ["▁atsi", -10.534707069396973], ["▁abantu", -10.534783363342285], ["려", -10.534858703613281], ["▁fm", -10.534900665283203], ["কা", -10.534985542297363], ["▁spre", -10.535079956054688], ["▁अनेक", -10.535749435424805], ["اص", -10.535813331604004], ["ιά", -10.535894393920898], ["▁эки", -10.536654472351074], ["▁людей", -10.536831855773926], ["▁сер", -10.536833763122559], ["றி", -10.536995887756348], ["▁ତେବେ", -10.53701114654541], ["ಂಗ", -10.537150382995605], ["▁ਭ", -10.537178993225098], ["ίες", -10.537201881408691], ["▁rezultat", -10.537970542907715], ["нес", -10.538150787353516], ["▁year", -10.538179397583008], ["▁करण्यात", -10.538325309753418], ["ொ", -10.538520812988281], ["ም።", -10.538534164428711], ["▁ಶ", -10.538848876953125], ["▁إن", -10.538978576660156], ["▁ಚ", -10.539175987243652], ["▁કર", -10.539253234863281], ["ude", -10.53947639465332], ["νη", -10.539514541625977], ["▁first", -10.539551734924316], ["ری", -10.540067672729492], ["▁prote", -10.54046630859375], ["ುತ್ತದೆ", -10.540815353393555], ["ması", -10.540974617004395], ["به", -10.541179656982422], ["জন", -10.541471481323242], ["ଁ", -10.541617393493652], ["ಂತ", -10.541828155517578], ["▁mun", -10.542152404785156], ["zna", -10.54240608215332], ["زی", -10.54258918762207], ["кер", -10.54273796081543], ["stru", -10.542839050292969], ["ുകള്‍", -10.543075561523438], ["▁inform", -10.543777465820312], ["▁elő", -10.543828964233398], ["कडे", -10.543882369995117], ["▁କରାଯାଇଛି", -10.544270515441895], ["தா", -10.544330596923828], ["kir", -10.544418334960938], ["▁കഴിഞ്ഞ", -10.544434547424316], ["▁aho", -10.54491901397705], ["▁тр", -10.544967651367188], ["▁район", -10.545015335083008], ["ാവ", -10.545031547546387], ["šanas", -10.545408248901367], ["西", -10.545705795288086], ["ভাবে", -10.545891761779785], ["▁drie", -10.545945167541504], ["▁aug", -10.546273231506348], ["λη", -10.546404838562012], ["▁mie", -10.546548843383789], ["ፊ", -10.546721458435059], ["代", -10.54672908782959], ["த்தி", -10.546758651733398], ["يف", -10.54703140258789], ["ца", -10.547066688537598], ["▁кур", -10.54727554321289], ["▁ویروس", -10.547377586364746], ["ೌ", -10.547624588012695], ["নের", -10.547646522521973], ["▁গ", -10.547652244567871], ["▁voru", -10.5477933883667], ["特", -10.547881126403809], ["던", -10.548059463500977], ["vet", -10.548407554626465], ["▁01", -10.548615455627441], ["식", -10.548651695251465], ["平", -10.548768043518066], ["ral", -10.549405097961426], ["بی", -10.549423217773438], ["ന്ന", -10.549439430236816], ["ండ", -10.549482345581055], ["வும்", -10.549495697021484], ["aria", -10.54958724975586], ["▁eks", -10.54958724975586], ["▁कारण", -10.54977798461914], ["uga", -10.549941062927246], ["60", -10.550025939941406], ["▁کل", -10.550196647644043], ["▁local", -10.550243377685547], ["▁туралы", -10.550466537475586], ["થ", -10.550496101379395], ["spor", -10.550586700439453], ["▁জ", -10.550658226013184], ["▁autor", -10.550763130187988], ["ছেন", -10.551017761230469], ["pis", -10.551018714904785], ["▁ces", -10.551168441772461], ["ume", -10.551342964172363], ["ठ", -10.55161190032959], ["ða", -10.55185317993164], ["▁ವ", -10.551857948303223], ["▁ଲାଗି", -10.55186653137207], ["▁imi", -10.551977157592773], ["കള", -10.5521240234375], ["▁ਲੋਕ", -10.552474975585938], ["▁tart", -10.5529146194458], ["lak", -10.553144454956055], ["▁በአ", -10.553244590759277], ["▁viņa", -10.553479194641113], ["▁ef", -10.553709983825684], ["eel", -10.553712844848633], ["ിക", -10.553982734680176], ["jam", -10.554014205932617], ["cher", -10.554204940795898], ["lio", -10.554333686828613], ["▁fund", -10.554533958435059], ["▁бара", -10.554672241210938], ["ದೇ", -10.554694175720215], ["▁hom", -10.554754257202148], ["▁کو", -10.554963111877441], ["ции", -10.555082321166992], ["르", -10.555376052856445], ["▁млн", -10.555583000183105], ["▁yari", -10.55560302734375], ["kap", -10.555780410766602], ["đa", -10.555879592895508], ["وس", -10.555898666381836], ["яз", -10.5562162399292], ["ښت", -10.556469917297363], ["▁مصر", -10.556622505187988], ["▁azt", -10.556682586669922], ["્યુ", -10.556768417358398], ["▁бил", -10.556772232055664], ["▁zwei", -10.556884765625], ["▁కు", -10.556961059570312], ["▁kuko", -10.556988716125488], ["▁nime", -10.557011604309082], ["ισ", -10.557040214538574], ["ન્", -10.557047843933105], ["▁sad", -10.55705451965332], ["工", -10.55713176727295], ["hvg", -10.557611465454102], ["▁luc", -10.557799339294434], ["▁pad", -10.557805061340332], ["ಯಿಂದ", -10.55785846710205], ["▁যে", -10.55785846710205], ["▁ታ", -10.55792236328125], ["тра", -10.55795955657959], ["▁سا", -10.557997703552246], ["ono", -10.558009147644043], ["▁حقوق", -10.558355331420898], ["▁kos", -10.55846881866455], ["ците", -10.558539390563965], ["あ", -10.558773040771484], ["▁ਅਸੀਂ", -10.55926513671875], ["dha", -10.559598922729492], ["학", -10.559767723083496], ["خت", -10.559934616088867], ["ään", -10.560067176818848], ["▁تن", -10.560160636901855], ["▁ellen", -10.560349464416504], ["ските", -10.560365676879883], ["ец", -10.560392379760742], ["lek", -10.560502052307129], ["▁работа", -10.560766220092773], ["ator", -10.560782432556152], ["▁ایسنا", -10.560925483703613], ["eer", -10.560993194580078], ["▁poli", -10.561038970947266], ["海", -10.56105899810791], ["▁полиция", -10.561295509338379], ["ಯಾ", -10.561498641967773], ["ौ", -10.561592102050781], ["ór", -10.561633110046387], ["▁hel", -10.561811447143555], ["▁жаса", -10.56186580657959], ["▁સામે", -10.561871528625488], ["▁바", -10.56187629699707], ["▁daudz", -10.561972618103027], ["دان", -10.562028884887695], ["▁pemerintah", -10.56203556060791], ["ए", -10.563369750976562], ["ਈ", -10.563508033752441], ["▁हुई", -10.56407642364502], ["▁πα", -10.564446449279785], ["▁cr", -10.564516067504883], ["▁make", -10.564620018005371], ["ә", -10.56491756439209], ["▁stig", -10.564931869506836], ["▁anos", -10.56527328491211], ["com", -10.565288543701172], ["▁бор", -10.565553665161133], ["▁दो", -10.565614700317383], ["кр", -10.565641403198242], ["sc", -10.565788269042969], ["ction", -10.565821647644043], ["▁kau", -10.565884590148926], ["▁ਹ", -10.565898895263672], ["感", -10.56590747833252], ["미", -10.566027641296387], ["한다", -10.56605339050293], ["liği", -10.566158294677734], ["▁sn", -10.566265106201172], ["▁مردم", -10.566322326660156], ["▁सर्व", -10.566394805908203], ["ım", -10.566705703735352], ["zik", -10.566776275634766], ["▁የኢትዮጵያ", -10.566856384277344], ["ਣਾ", -10.566975593566895], ["▁nä", -10.567193984985352], ["ড", -10.567453384399414], ["▁алматы", -10.567548751831055], ["пис", -10.567678451538086], ["cc", -10.567790031433105], ["geze", -10.567971229553223], ["▁imvahonshya", -10.568158149719238], ["▁প্রতি", -10.568182945251465], ["▁دست", -10.568187713623047], ["eta", -10.568323135375977], ["▁ander", -10.568415641784668], ["▁ਫੋਟੋ", -10.568902015686035], ["▁set", -10.568967819213867], ["▁тұр", -10.569087982177734], ["▁aka", -10.569266319274902], ["জি", -10.569587707519531], ["ється", -10.5697021484375], ["हा", -10.569724082946777], ["انی", -10.569855690002441], ["ਰੇ", -10.570018768310547], ["angan", -10.570369720458984], ["▁fur", -10.570571899414062], ["нен", -10.5706148147583], ["қан", -10.570630073547363], ["lju", -10.570727348327637], ["ेल", -10.570784568786621], ["▁andere", -10.57079029083252], ["esti", -10.571212768554688], ["▁ପା", -10.57150936126709], ["▁미", -10.571552276611328], ["۲", -10.571574211120605], ["స్త", -10.571610450744629], ["▁kõik", -10.571654319763184], ["гөн", -10.571696281433105], ["hari", -10.571772575378418], ["rz", -10.571927070617676], ["న్నారు", -10.572386741638184], ["▁back", -10.572460174560547], ["ника", -10.572476387023926], ["ቱን", -10.572558403015137], ["え", -10.572566986083984], ["▁cas", -10.572633743286133], ["▁ಲಸಿಕೆ", -10.572633743286133], ["▁nego", -10.572646141052246], ["▁zaman", -10.572693824768066], ["jumu", -10.57274055480957], ["▁mare", -10.572741508483887], ["ांनी", -10.572759628295898], ["▁krist", -10.573225975036621], ["▁hol", -10.573393821716309], ["▁ple", -10.573403358459473], ["▁ros", -10.573416709899902], ["কার", -10.573453903198242], ["▁ನಡೆಸ", -10.57355785369873], ["fite", -10.573620796203613], ["▁እያ", -10.57376766204834], ["ሶ", -10.57394790649414], ["▁caso", -10.573991775512695], ["οί", -10.574027061462402], ["ନ୍ତ", -10.574196815490723], ["65", -10.574417114257812], ["കര", -10.574529647827148], ["▁ଉ", -10.574548721313477], ["þ", -10.574727058410645], ["▁പി", -10.575014114379883], ["గ్", -10.57520866394043], ["▁сред", -10.575322151184082], ["▁हुए", -10.57563304901123], ["ણી", -10.576154708862305], ["▁также", -10.576160430908203], ["▁już", -10.576162338256836], ["لة", -10.576302528381348], ["ड़", -10.576521873474121], ["メ", -10.57656192779541], ["▁ویلي", -10.57663345336914], ["ଥ", -10.576725006103516], ["▁astrazeneca", -10.576726913452148], ["ct", -10.57679271697998], ["▁state", -10.57739543914795], ["ugh", -10.57757568359375], ["مل", -10.577714920043945], ["▁barcelona", -10.57795524597168], ["▁вирус", -10.577985763549805], ["▁것", -10.578705787658691], ["▁bul", -10.578784942626953], ["▁nchi", -10.578805923461914], ["新華網", -10.578822135925293], ["уу", -10.579051971435547], ["тап", -10.579118728637695], ["内", -10.579508781433105], ["ол", -10.579587936401367], ["ਿਤ", -10.579706192016602], ["▁کند", -10.579793930053711], ["▁ହେବ", -10.579818725585938], ["▁ata", -10.579919815063477], ["ዶ", -10.579975128173828], ["yje", -10.580013275146484], ["▁જો", -10.58022689819336], ["▁재", -10.580227851867676], ["▁yeni", -10.580257415771484], ["έλ", -10.580317497253418], ["ക്കും", -10.580567359924316], ["▁comme", -10.580999374389648], ["при", -10.58100414276123], ["مة", -10.581024169921875], ["▁ಸು", -10.581503868103027], ["▁ovo", -10.581640243530273], ["ue", -10.581838607788086], ["▁በላይ", -10.58193588256836], ["▁maz", -10.581939697265625], ["dom", -10.582475662231445], ["oon", -10.582803726196289], ["pun", -10.583126068115234], ["▁সময়", -10.583135604858398], ["▁grand", -10.58324146270752], ["▁отыр", -10.583359718322754], ["tė", -10.583382606506348], ["▁ഉ", -10.58339786529541], ["という", -10.583666801452637], ["▁hata", -10.583733558654785], ["zon", -10.583775520324707], ["▁51", -10.58403491973877], ["▁even", -10.58428955078125], ["31", -10.584481239318848], ["▁él", -10.584632873535156], ["ાવ", -10.584793090820312], ["инин", -10.584959983825684], ["▁maka", -10.58497142791748], ["iyor", -10.585264205932617], ["वि", -10.585331916809082], ["টে", -10.585342407226562], ["encia", -10.58536434173584], ["ées", -10.58543872833252], ["내", -10.5857515335083], ["kov", -10.585938453674316], ["фа", -10.586024284362793], ["▁त्यांना", -10.586031913757324], ["▁muda", -10.586149215698242], ["▁ос", -10.58617115020752], ["▁இருந்த", -10.586517333984375], ["ील", -10.586532592773438], ["▁só", -10.587081909179688], ["xi", -10.587234497070312], ["ать", -10.587393760681152], ["ζ", -10.58760929107666], ["дик", -10.5880126953125], ["▁ప్రభుత్వం", -10.588027954101562], ["nza", -10.588212013244629], ["dr", -10.588375091552734], ["кон", -10.588445663452148], ["▁وزیر", -10.588471412658691], ["▁अस", -10.588801383972168], ["▁väga", -10.589007377624512], ["▁ପକ୍ଷରୁ", -10.589032173156738], ["cion", -10.589163780212402], ["▁tako", -10.589254379272461], ["put", -10.589317321777344], ["σα", -10.589463233947754], ["▁ഒ", -10.589483261108398], ["▁durch", -10.589615821838379], ["ane", -10.589639663696289], ["ств", -10.589792251586914], ["▁ans", -10.590190887451172], ["▁рече", -10.590195655822754], ["nym", -10.59034538269043], ["uksen", -10.590410232543945], ["ју", -10.590800285339355], ["тары", -10.590815544128418], ["▁тра", -10.590848922729492], ["പ്പെട്ട", -10.591109275817871], ["ría", -10.591436386108398], ["▁алды", -10.591791152954102], ["▁ollut", -10.591920852661133], ["▁08", -10.59201431274414], ["院", -10.592072486877441], ["bat", -10.59212589263916], ["▁cur", -10.592316627502441], ["मी", -10.592391967773438], ["▁jako", -10.592397689819336], ["利", -10.592596054077148], ["▁sti", -10.592856407165527], ["نده", -10.593297004699707], ["▁ਸੁ", -10.59348201751709], ["▁mobil", -10.593496322631836], ["мов", -10.593616485595703], ["ச்ச", -10.593711853027344], ["قل", -10.593759536743164], ["лып", -10.594306945800781], ["▁হাজার", -10.59437370300293], ["▁realiz", -10.594453811645508], ["hel", -10.594456672668457], ["ето", -10.594478607177734], ["ome", -10.594507217407227], ["ból", -10.594656944274902], ["업", -10.594673156738281], ["▁aja", -10.594837188720703], ["owe", -10.595039367675781], ["▁جو", -10.595125198364258], ["▁mur", -10.595162391662598], ["▁gest", -10.595658302307129], ["▁menga", -10.595666885375977], ["vio", -10.596075057983398], ["▁мы", -10.596107482910156], ["тися", -10.596166610717773], ["kol", -10.596364974975586], ["▁metu", -10.59652042388916], ["▁sonra", -10.596601486206055], ["▁ә", -10.596656799316406], ["▁ହୋଇଛି", -10.596733093261719], ["బ", -10.596858024597168], ["▁강", -10.597002029418945], ["▁hierdie", -10.597270965576172], ["owych", -10.597271919250488], ["▁fue", -10.597472190856934], ["assa", -10.597495079040527], ["ування", -10.597576141357422], ["▁εξ", -10.597610473632812], ["▁cho", -10.598103523254395], ["▁ਹਾਂ", -10.59823989868164], ["тық", -10.598553657531738], ["ique", -10.598554611206055], ["ിട്ടുണ്ട്", -10.59874153137207], ["▁hivyo", -10.598801612854004], ["ኖ", -10.598901748657227], ["▁off", -10.59898567199707], ["▁way", -10.599087715148926], ["ată", -10.599091529846191], ["▁ସି", -10.599340438842773], ["됐다", -10.599390029907227], ["▁hali", -10.599559783935547], ["ವೆ", -10.599689483642578], ["건", -10.60014820098877], ["br", -10.600214958190918], ["▁ref", -10.600300788879395], ["▁કરવા", -10.600472450256348], ["art", -10.600517272949219], ["ହା", -10.600601196289062], ["▁pare", -10.60066032409668], ["▁என்ற", -10.600834846496582], ["▁hjá", -10.600981712341309], ["جم", -10.601202964782715], ["▁पक्ष", -10.601447105407715], ["ির", -10.601506233215332], ["▁పా", -10.601689338684082], ["▁କା", -10.601710319519043], ["습니다", -10.601753234863281], ["ră", -10.6018705368042], ["тов", -10.601988792419434], ["▁други", -10.602256774902344], ["▁карантин", -10.602615356445312], ["▁أو", -10.602622985839844], ["▁sistem", -10.6026611328125], ["ove", -10.60269832611084], ["▁kamp", -10.602777481079102], ["▁اړه", -10.60283088684082], ["▁българия", -10.602883338928223], ["వే", -10.602950096130371], ["град", -10.603034019470215], ["۱", -10.603123664855957], ["୦", -10.603133201599121], ["جل", -10.603172302246094], ["िल", -10.603497505187988], ["47", -10.603514671325684], ["dzi", -10.603774070739746], ["▁आता", -10.603904724121094], ["дет", -10.603981971740723], ["▁zich", -10.604196548461914], ["▁him", -10.604355812072754], ["▁ډ", -10.604520797729492], ["ėti", -10.604636192321777], ["ják", -10.604670524597168], ["▁spi", -10.604781150817871], ["▁bri", -10.604896545410156], ["▁аны", -10.60494613647461], ["▁کال", -10.60496997833252], ["şi", -10.605022430419922], ["ِ", -10.605121612548828], ["中国", -10.605243682861328], ["▁пи", -10.605402946472168], ["idi", -10.605755805969238], ["вали", -10.605830192565918], ["▁geld", -10.606019973754883], ["▁తన", -10.606075286865234], ["▁questo", -10.606085777282715], ["▁data", -10.606218338012695], ["▁نو", -10.606404304504395], ["▁ਜੋ", -10.60644817352295], ["▁৩", -10.606921195983887], ["부터", -10.60721206665039], ["τά", -10.607526779174805], ["лары", -10.607976913452148], ["▁namun", -10.608015060424805], ["▁kir", -10.60802936553955], ["▁sat", -10.608213424682617], ["▁към", -10.608216285705566], ["▁noi", -10.608250617980957], ["▁بين", -10.608366966247559], ["▁joka", -10.608474731445312], ["▁करत", -10.608476638793945], ["▁ਇ", -10.60861873626709], ["udi", -10.608748435974121], ["▁nederland", -10.608762741088867], ["▁сал", -10.608794212341309], ["▁мар", -10.608943939208984], ["천", -10.609136581420898], ["தாக", -10.609232902526855], ["ಲೆ", -10.609247207641602], ["ಯು", -10.609249114990234], ["λι", -10.609354019165039], ["▁трябва", -10.609378814697266], ["▁09", -10.609529495239258], ["래", -10.60993480682373], ["वे", -10.610030174255371], ["▁документ", -10.61015510559082], ["▁በኋላ", -10.61015510559082], ["37", -10.61016845703125], ["ću", -10.610712051391602], ["▁szer", -10.610867500305176], ["新华网", -10.610931396484375], ["riye", -10.611376762390137], ["వర్", -10.611382484436035], ["ሸ", -10.611397743225098], ["ое", -10.611618995666504], ["▁още", -10.611794471740723], ["▁anak", -10.612016677856445], ["▁መንግሥት", -10.612161636352539], ["دة", -10.612833976745605], ["ન્ટ", -10.612844467163086], ["▁ча", -10.613166809082031], ["fre", -10.613367080688477], ["okat", -10.613662719726562], ["मान", -10.613818168640137], ["▁ris", -10.614197731018066], ["▁nyuma", -10.6143217086792], ["ngu", -10.614370346069336], ["▁skr", -10.614426612854004], ["нда", -10.614456176757812], ["▁vera", -10.614501953125], ["ius", -10.614819526672363], ["▁كل", -10.615367889404297], ["ीत", -10.615395545959473], ["fel", -10.61542797088623], ["nă", -10.615825653076172], ["ቴ", -10.615994453430176], ["▁than", -10.616071701049805], ["▁бъде", -10.616189956665039], ["kaan", -10.616765975952148], ["darb", -10.617233276367188], ["機", -10.617352485656738], ["에는", -10.617456436157227], ["▁동", -10.617711067199707], ["▁வந்த", -10.617962837219238], ["sza", -10.618095397949219], ["▁global", -10.618241310119629], ["▁ν", -10.618249893188477], ["▁ከተማ", -10.618287086486816], ["▁grande", -10.618339538574219], ["▁milli", -10.618436813354492], ["lon", -10.618553161621094], ["दार", -10.618578910827637], ["ux", -10.618579864501953], ["路", -10.618924140930176], ["▁też", -10.619073867797852], ["ности", -10.619251251220703], ["▁ਉ", -10.61978530883789], ["▁band", -10.619802474975586], ["bol", -10.61997127532959], ["우", -10.620054244995117], ["ଜି", -10.620075225830078], ["▁mille", -10.620094299316406], ["▁نور", -10.620100975036621], ["унун", -10.620620727539062], ["▁ch", -10.620676040649414], ["▁도", -10.620917320251465], ["pres", -10.62102222442627], ["田", -10.62108039855957], ["ಸ್‌", -10.621235847473145], ["ቸውን", -10.621509552001953], ["odi", -10.621537208557129], ["iyay", -10.62159252166748], ["pie", -10.621633529663086], ["▁депутат", -10.621635437011719], ["نی", -10.621774673461914], ["ಳಿ", -10.621993064880371], ["▁league", -10.6220703125], ["ਂ", -10.62220287322998], ["jal", -10.622286796569824], ["اه", -10.622593879699707], ["▁win", -10.622674942016602], ["jör", -10.622676849365234], ["正", -10.622915267944336], ["▁53", -10.623099327087402], ["▁деді", -10.623296737670898], ["ед", -10.623671531677246], ["▁وم", -10.623723983764648], ["▁gera", -10.624234199523926], ["▁esi", -10.624298095703125], ["▁lehet", -10.62432861328125], ["ವರ", -10.624340057373047], ["▁кийин", -10.624429702758789], ["元", -10.624587059020996], ["luk", -10.624691009521484], ["▁ainda", -10.624910354614258], ["llis", -10.624919891357422], ["kie", -10.62501049041748], ["▁வர", -10.625035285949707], ["▁خلال", -10.625081062316895], ["▁इ", -10.625572204589844], ["யான", -10.625617027282715], ["▁sh", -10.625770568847656], ["ড়", -10.625807762145996], ["ög", -10.625864028930664], ["▁더", -10.625871658325195], ["▁gut", -10.625886917114258], ["▁የሚያ", -10.625994682312012], ["▁huu", -10.626106262207031], ["صل", -10.626160621643066], ["▁vakcin", -10.626188278198242], ["▁nyt", -10.626277923583984], ["▁कम", -10.626290321350098], ["zia", -10.62644100189209], ["uli", -10.626462936401367], ["दा", -10.626511573791504], ["۹", -10.626516342163086], ["cja", -10.626522064208984], ["iro", -10.626577377319336], ["▁ри", -10.62658977508545], ["▁manchester", -10.626592636108398], ["▁place", -10.626734733581543], ["▁procent", -10.626736640930176], ["ଟା", -10.6268310546875], ["ांच्या", -10.627028465270996], ["유", -10.627106666564941], ["iye", -10.627251625061035], ["▁54", -10.62744140625], ["▁دیگر", -10.6275053024292], ["kai", -10.627564430236816], ["نګ", -10.627595901489258], ["▁кел", -10.627629280090332], ["▁hr", -10.628170013427734], ["ರ್‌", -10.628495216369629], ["에게", -10.62852954864502], ["జ్", -10.628580093383789], ["öö", -10.62874984741211], ["୬", -10.628775596618652], ["▁politik", -10.628914833068848], ["ጀ", -10.628952980041504], ["shya", -10.629076957702637], ["▁பு", -10.629112243652344], ["pat", -10.629204750061035], ["іс", -10.62922191619873], ["▁ant", -10.629390716552734], ["வின்", -10.629437446594238], ["▁gew", -10.629461288452148], ["rum", -10.629592895507812], ["iyo", -10.629624366760254], ["▁نيوز", -10.629755020141602], ["▁શ", -10.630058288574219], ["▁кри", -10.63033676147461], ["▁sheegay", -10.630356788635254], ["▁dzi", -10.630516052246094], ["▁সি", -10.630536079406738], ["وی", -10.630631446838379], ["▁57", -10.63066291809082], ["ಗಿ", -10.630819320678711], ["▁تم", -10.630860328674316], ["▁metų", -10.63088607788086], ["ಲಾಗಿದೆ", -10.630974769592285], ["asta", -10.631038665771484], ["вал", -10.631062507629395], ["lü", -10.631166458129883], ["05", -10.631428718566895], ["▁dh", -10.631523132324219], ["ția", -10.631651878356934], ["▁لو", -10.631692886352539], ["▁ਬਹੁਤ", -10.632234573364258], ["ுவ", -10.632285118103027], ["বা", -10.6327486038208], ["▁کړی", -10.632827758789062], ["▁ት", -10.632843017578125], ["ମି", -10.632885932922363], ["심", -10.633119583129883], ["ști", -10.633296966552734], ["▁taliban", -10.633439064025879], ["▁kul", -10.633478164672852], ["ాడు", -10.633832931518555], ["▁2019.", -10.633981704711914], ["종", -10.634040832519531], ["▁கடந்த", -10.63405704498291], ["▁ਰਹੀ", -10.634063720703125], ["όρ", -10.63410472869873], ["▁mbere", -10.63412857055664], ["cas", -10.63415813446045], ["▁ला", -10.634176254272461], ["▁мер", -10.63454532623291], ["ଡ଼", -10.6346435546875], ["ļ", -10.634702682495117], ["출", -10.63520622253418], ["بو", -10.635374069213867], ["▁után", -10.635448455810547], ["শা", -10.635621070861816], ["toa", -10.635747909545898], ["▁кор", -10.6359281539917], ["pil", -10.635978698730469], ["ጨ", -10.63602066040039], ["kora", -10.636059761047363], ["▁проект", -10.636076927185059], ["தை", -10.636321067810059], ["信", -10.63649845123291], ["स्ट", -10.636523246765137], ["▁asia", -10.636524200439453], ["▁viņš", -10.636581420898438], ["క్ష", -10.636614799499512], ["▁вид", -10.636653900146484], ["▁україни", -10.636770248413086], ["lom", -10.63683032989502], ["▁deze", -10.63692569732666], ["▁danas", -10.637011528015137], ["▁ਕੈਪਸ਼ਨ", -10.637104034423828], ["ży", -10.637382507324219], ["社", -10.637609481811523], ["▁dha", -10.637670516967773], ["ایی", -10.63772964477539], ["ß", -10.637800216674805], ["дат", -10.638190269470215], ["▁kepada", -10.638365745544434], ["nyt", -10.638402938842773], ["ான", -10.638453483581543], ["▁یوه", -10.638653755187988], ["▁mēs", -10.63871955871582], ["ęs", -10.638863563537598], ["tada", -10.639023780822754], ["▁차", -10.639090538024902], ["лся", -10.639162063598633], ["ос", -10.639171600341797], ["▁minden", -10.6392183303833], ["▁લોકો", -10.639372825622559], ["▁ಗ", -10.639394760131836], ["▁harus", -10.639492988586426], ["▁kesk", -10.63956356048584], ["▁koko", -10.639935493469238], ["▁alg", -10.640088081359863], ["▁afghan", -10.64009952545166], ["▁stato", -10.640270233154297], ["sing", -10.640287399291992], ["ਚ", -10.640398025512695], ["▁új", -10.640591621398926], ["75", -10.640607833862305], ["izi", -10.640799522399902], ["سر", -10.640976905822754], ["▁jää", -10.641212463378906], ["اط", -10.641448974609375], ["ंट", -10.641495704650879], ["실", -10.641589164733887], ["▁wieder", -10.641599655151367], ["▁kop", -10.64161205291748], ["▁سه", -10.641632080078125], ["▁could", -10.641716957092285], ["▁ಬಂದ", -10.641974449157715], ["▁kazi", -10.642547607421875], ["▁personal", -10.642565727233887], ["▁एका", -10.642833709716797], ["▁juba", -10.643011093139648], ["▁하", -10.643089294433594], ["▁nú", -10.643156051635742], ["ષ", -10.643404960632324], ["러", -10.64342975616455], ["▁நி", -10.643441200256348], ["33", -10.643500328063965], ["▁ara", -10.643600463867188], ["kuru", -10.643768310546875], ["ዮ", -10.643776893615723], ["று", -10.643810272216797], ["gaan", -10.644052505493164], ["ують", -10.64409351348877], ["▁waren", -10.644107818603516], ["▁ના", -10.644393920898438], ["endo", -10.64441204071045], ["▁conta", -10.644420623779297], ["ಿಲ್ಲ", -10.644479751586914], ["tsi", -10.644649505615234], ["лек", -10.644675254821777], ["▁camp", -10.644721984863281], ["▁живот", -10.644981384277344], ["بار", -10.645112991333008], ["▁punkt", -10.645346641540527], ["▁રહ્યા", -10.645633697509766], ["بط", -10.645868301391602], ["▁ଶ", -10.646000862121582], ["▁kuru", -10.6461181640625], ["▁सुरू", -10.646132469177246], ["▁୪", -10.64614486694336], ["gere", -10.646306037902832], ["▁2011", -10.64633846282959], ["ਸੀ", -10.64638614654541], ["▁joe", -10.646424293518066], ["▁ሰ", -10.646662712097168], ["▁ange", -10.646777153015137], ["▁ér", -10.646936416625977], ["jat", -10.647034645080566], ["šti", -10.647066116333008], ["▁aange", -10.647359848022461], ["▁siku", -10.647468566894531], ["▁kali", -10.64767074584961], ["▁μου", -10.648028373718262], ["uose", -10.648139953613281], ["tē", -10.648253440856934], ["▁цел", -10.64848804473877], ["form", -10.648541450500488], ["лась", -10.648588180541992], ["▁jednak", -10.648741722106934], ["▁র", -10.64913272857666], ["▁жаңа", -10.649139404296875], ["▁сол", -10.649335861206055], ["nej", -10.649487495422363], ["ged", -10.649723052978516], ["▁ପୋଲିସ", -10.649744987487793], ["સા", -10.649754524230957], ["ል።", -10.649802207946777], ["▁pode", -10.650026321411133], ["дов", -10.650160789489746], ["▁prema", -10.650216102600098], ["ራት", -10.650227546691895], ["▁един", -10.650416374206543], ["னா", -10.650449752807617], ["▁الا", -10.650689125061035], ["llä", -10.650723457336426], ["шен", -10.650734901428223], ["▁ekonomi", -10.650890350341797], ["気", -10.650946617126465], ["ଠାରୁ", -10.651008605957031], ["▁مست", -10.65102767944336], ["aug", -10.651310920715332], ["▁rio", -10.65146255493164], ["ജ", -10.65185832977295], ["mara", -10.651872634887695], ["38", -10.652097702026367], ["tav", -10.652104377746582], ["miento", -10.652185440063477], ["▁ત", -10.652278900146484], ["μο", -10.6522798538208], ["▁дейін", -10.652313232421875], ["शा", -10.652359962463379], ["▁χ", -10.65237045288086], ["бер", -10.652541160583496], ["är", -10.65265941619873], ["▁пов", -10.65269947052002], ["▁gran", -10.652774810791016], ["କି", -10.652776718139648], ["相", -10.652780532836914], ["یا", -10.652936935424805], ["gin", -10.653277397155762], ["90", -10.653284072875977], ["▁sim", -10.653522491455078], ["▁todos", -10.653846740722656], ["ଟ୍‌", -10.654058456420898], ["ут", -10.654155731201172], ["▁ду", -10.654169082641602], ["ౌ", -10.654388427734375], ["▁지난", -10.654528617858887], ["▁būti", -10.654544830322266], ["azione", -10.654684066772461], ["▁евро", -10.654709815979004], ["▁cost", -10.65472412109375], ["▁남", -10.654725074768066], ["▁ବର୍ଷ", -10.654775619506836], ["▁64", -10.655373573303223], ["gno", -10.655472755432129], ["uoja", -10.655876159667969], ["▁sala", -10.656011581420898], ["mark", -10.65603256225586], ["▁پل", -10.656146049499512], ["itä", -10.656147003173828], ["భ", -10.656176567077637], ["▁dib", -10.656222343444824], ["يس", -10.656368255615234], ["lag", -10.656754493713379], ["త్ర", -10.656771659851074], ["bur", -10.656837463378906], ["bie", -10.656882286071777], ["▁ना", -10.657011985778809], ["▁তারা", -10.657014846801758], ["っ", -10.657187461853027], ["nov", -10.657201766967773], ["enza", -10.657203674316406], ["نگ", -10.65726375579834], ["▁مهم", -10.6574068069458], ["етін", -10.657631874084473], ["▁вер", -10.657722473144531], ["▁કા", -10.657822608947754], ["களின்", -10.657876968383789], ["▁ର", -10.658020973205566], ["▁대한", -10.658079147338867], ["uju", -10.658103942871094], ["ಖ", -10.658122062683105], ["ॉ", -10.65821361541748], ["ture", -10.65837287902832], ["▁world", -10.658873558044434], ["ču", -10.659213066101074], ["▁ಸರ್ಕಾರ", -10.659346580505371], ["стра", -10.659599304199219], ["▁በሚ", -10.659668922424316], ["urs", -10.659915924072266], ["bet", -10.66002082824707], ["gé", -10.660024642944336], ["▁üks", -10.660164833068848], ["▁sm", -10.660257339477539], ["▁mod", -10.660266876220703], ["▁लेकर", -10.66037368774414], ["▁work", -10.660494804382324], ["▁జగన్", -10.660504341125488], ["공", -10.660621643066406], ["ബ", -10.660810470581055], ["ጻ", -10.661091804504395], ["tia", -10.661396026611328], ["임", -10.661432266235352], ["▁ren", -10.661722183227539], ["ፕ", -10.661727905273438], ["ದೆ", -10.66178035736084], ["▁две", -10.661975860595703], ["▁dunia", -10.661991119384766], ["ء", -10.662069320678711], ["▁mogu", -10.662095069885254], ["col", -10.662225723266602], ["▁вони", -10.662506103515625], ["nego", -10.66259765625], ["grad", -10.662680625915527], ["▁मे", -10.662703514099121], ["ولو", -10.662873268127441], ["нос", -10.66306209564209], ["ilor", -10.66312026977539], ["▁बा", -10.663544654846191], ["فت", -10.663552284240723], ["▁македонија", -10.663595199584961], ["tten", -10.663640022277832], ["▁നിന്ന്", -10.663748741149902], ["▁செய்த", -10.663869857788086], ["iji", -10.664545059204102], ["▁महिला", -10.664580345153809], ["ઠ", -10.664766311645508], ["rii", -10.665037155151367], ["ugu", -10.665042877197266], ["▁መሆኑን", -10.665332794189453], ["解", -10.665398597717285], ["▁masih", -10.665477752685547], ["▁আগে", -10.665487289428711], ["нат", -10.665603637695312], ["▁72", -10.665730476379395], ["▁ала", -10.665735244750977], ["▁ру", -10.665777206420898], ["▁58", -10.665791511535645], ["nosti", -10.666155815124512], ["▁ζ", -10.666358947753906], ["ደር", -10.666557312011719], ["യു", -10.666694641113281], ["▁башка", -10.666991233825684], ["ismo", -10.667021751403809], ["мат", -10.667095184326172], ["▁كورونا", -10.66716194152832], ["▁fan", -10.667187690734863], ["▁ਹੋਇਆ", -10.66726303100586], ["▁रा", -10.667271614074707], ["▁ста", -10.667366027832031], ["▁ଜଣେ", -10.667421340942383], ["rio", -10.667695045471191], ["ಿತ್ತು", -10.667791366577148], ["ынын", -10.668238639831543], ["▁কাজ", -10.669066429138184], ["▁ಭ", -10.669118881225586], ["oor", -10.669135093688965], ["rse", -10.669378280639648], ["kė", -10.669539451599121], ["▁ਦੋ", -10.669622421264648], ["▁deel", -10.669873237609863], ["▁воз", -10.67008113861084], ["▁ച", -10.6703462600708], ["▁85", -10.670393943786621], ["hanga", -10.670510292053223], ["hor", -10.67054271697998], ["sis", -10.67055606842041], ["мін", -10.670586585998535], ["▁ਰ", -10.67059326171875], ["ości", -10.670636177062988], ["▁oldu", -10.670809745788574], ["kes", -10.670891761779785], ["フ", -10.670950889587402], ["▁september", -10.670968055725098], ["發", -10.671405792236328], ["স্ট", -10.671422004699707], ["▁term", -10.671606063842773], ["▁الص", -10.671822547912598], ["пер", -10.671847343444824], ["▁ਜਾਣ", -10.671903610229492], ["ví", -10.672082901000977], ["▁ова", -10.672102928161621], ["чка", -10.672173500061035], ["ték", -10.672202110290527], ["ምር", -10.672219276428223], ["▁dro", -10.672290802001953], ["स्थ", -10.672331809997559], ["▁posta", -10.672451972961426], ["▁болған", -10.673065185546875], ["tet", -10.67315673828125], ["更", -10.673386573791504], ["▁киши", -10.673426628112793], ["ಮಾ", -10.673755645751953], ["▁xi", -10.673786163330078], ["▁استان", -10.673833847045898], ["ിച്ചു", -10.673916816711426], ["yr", -10.674154281616211], ["ðu", -10.674269676208496], ["▁ļoti", -10.67427921295166], ["▁ದ", -10.674418449401855], ["▁ਹੁਣ", -10.674480438232422], ["ðar", -10.674525260925293], ["▁ଦିନ", -10.674626350402832], ["55", -10.674652099609375], ["лды", -10.674776077270508], ["ላቸው", -10.674954414367676], ["▁мал", -10.675192832946777], ["▁negara", -10.675211906433105], ["▁செய்ய", -10.675496101379395], ["мі", -10.675500869750977], ["▁ମଧ୍ୟରେ", -10.675644874572754], ["dığı", -10.675694465637207], ["▁pur", -10.676018714904785], ["kum", -10.676094055175781], ["▁видео", -10.676130294799805], ["▁미국", -10.676175117492676], ["▁இட", -10.676206588745117], ["టు", -10.676462173461914], ["ях", -10.676684379577637], ["▁після", -10.676759719848633], ["39", -10.677040100097656], ["▁lát", -10.677104949951172], ["▁mol", -10.677274703979492], ["▁сега", -10.67773151397705], ["ುತ್ತಿದೆ", -10.677840232849121], ["▁қала", -10.677924156188965], ["stre", -10.677966117858887], ["മ്പ", -10.678040504455566], ["ole", -10.678089141845703], ["īgi", -10.678231239318848], ["▁amerika", -10.678265571594238], ["▁ደግሞ", -10.678420066833496], ["ധ", -10.678455352783203], ["▁eri", -10.6785249710083], ["▁john", -10.67861557006836], ["▁αλλά", -10.678685188293457], ["▁56", -10.678692817687988], ["▁દ", -10.679252624511719], ["他", -10.679413795471191], ["tom", -10.679429054260254], ["አ", -10.679691314697266], ["ተኛ", -10.67978286743164], ["يو", -10.679895401000977], ["ishi", -10.679938316345215], ["▁بو", -10.679962158203125], ["▁उन्होंने", -10.680086135864258], ["▁کر", -10.680130004882812], ["▁acest", -10.68043041229248], ["ева", -10.680797576904297], ["ッ", -10.680869102478027], ["ዋል።", -10.681005477905273], ["след", -10.681024551391602], ["іл", -10.681124687194824], ["▁bad", -10.681228637695312], ["ರಿಗೆ", -10.681280136108398], ["▁ন", -10.681405067443848], ["సీ", -10.681458473205566], ["▁கோ", -10.681640625], ["tila", -10.681724548339844], ["▁did", -10.681741714477539], ["▁dva", -10.68179988861084], ["нс", -10.681981086730957], ["▁tun", -10.682080268859863], ["▁sex", -10.682269096374512], ["ларды", -10.683003425598145], ["▁europa", -10.683027267456055], ["्व", -10.683176040649414], ["ନୀ", -10.683520317077637], ["чки", -10.683572769165039], ["▁mé", -10.683606147766113], ["ota", -10.683716773986816], ["qué", -10.683725357055664], ["▁produ", -10.683938980102539], ["▁its", -10.684240341186523], ["▁তবে", -10.684490203857422], ["▁ଉପରେ", -10.684720039367676], ["ਕਰ", -10.68472671508789], ["▁случаи", -10.684883117675781], ["め", -10.685013771057129], ["ināt", -10.68506145477295], ["ട്ടി", -10.685104370117188], ["▁ଯେ", -10.685157775878906], ["eme", -10.685297966003418], ["oz", -10.685340881347656], ["ție", -10.685395240783691], ["▁into", -10.685471534729004], ["▁пу", -10.68554973602295], ["oro", -10.68556022644043], ["tö", -10.685566902160645], ["মান", -10.685848236083984], ["▁стар", -10.685976028442383], ["▁kay", -10.68607234954834], ["▁ചെയ്യ", -10.686253547668457], ["ολ", -10.686302185058594], ["▁சில", -10.68643856048584], ["▁вели", -10.686552047729492], ["▁ହେଲେ", -10.686558723449707], ["▁προσ", -10.686664581298828], ["▁것으로", -10.686882019042969], ["ವರು", -10.686923027038574], ["レ", -10.686993598937988], ["λε", -10.68732738494873], ["▁സംസ്ഥാന", -10.687525749206543], ["దు", -10.687723159790039], ["ታቸው", -10.688063621520996], ["дор", -10.68815803527832], ["nost", -10.688270568847656], ["▁ሺህ", -10.688440322875977], ["ত্র", -10.688671112060547], ["▁મળી", -10.688902854919434], ["zar", -10.688957214355469], ["ecek", -10.689000129699707], ["▁paris", -10.689067840576172], ["ষ", -10.689240455627441], ["时", -10.689438819885254], ["▁rumah", -10.689508438110352], ["▁taj", -10.689632415771484], ["γκ", -10.68964958190918], ["▁মে", -10.689688682556152], ["imas", -10.689737319946289], ["▁ਲੈ", -10.690102577209473], ["lli", -10.690112113952637], ["cal", -10.690200805664062], ["▁अधिक", -10.690309524536133], ["ಶ್", -10.69033432006836], ["▁ସୁ", -10.690415382385254], ["hoz", -10.690638542175293], ["▁gor", -10.690685272216797], ["ሀ", -10.690866470336914], ["ಿತ", -10.690896987915039], ["▁ühe", -10.69091510772705], ["she", -10.69094467163086], ["گ", -10.69095516204834], ["▁будет", -10.690999984741211], ["ቹ", -10.691158294677734], ["▁west", -10.691195487976074], ["▁saam", -10.691309928894043], ["▁kadar", -10.691354751586914], ["▁गु", -10.69157600402832], ["ról", -10.691658973693848], ["▁bas", -10.69169807434082], ["від", -10.691969871520996], ["الي", -10.69214153289795], ["▁lietuvos", -10.692214012145996], ["rimo", -10.69223403930664], ["zem", -10.69238567352295], ["વો", -10.692509651184082], ["▁لري", -10.69265079498291], ["▁κατά", -10.692731857299805], ["▁ਬਣ", -10.692909240722656], ["በር", -10.692975044250488], ["▁jur", -10.693155288696289], ["▁banyak", -10.693209648132324], ["arak", -10.693266868591309], ["ъл", -10.693366050720215], ["▁gri", -10.693380355834961], ["rica", -10.69340991973877], ["rán", -10.69345760345459], ["▁ਪਹਿਲਾਂ", -10.693512916564941], ["▁ಕಾ", -10.693556785583496], ["▁원", -10.693633079528809], ["近", -10.693671226501465], ["比", -10.693697929382324], ["▁நா", -10.693758964538574], ["ಲ್‌", -10.694135665893555], ["ለች።", -10.694136619567871], ["▁पु", -10.694345474243164], ["вся", -10.694731712341309], ["iju", -10.694899559020996], ["ొ", -10.6953763961792], ["үнө", -10.695391654968262], ["viet", -10.695405006408691], ["మి", -10.695531845092773], ["▁घ", -10.695591926574707], ["▁nacional", -10.695666313171387], ["▁нов", -10.695731163024902], ["▁rek", -10.695792198181152], ["▁прав", -10.69579792022705], ["▁લ", -10.695829391479492], ["▁sv", -10.695969581604004], ["▁повеќе", -10.696029663085938], ["▁આવ્યા", -10.696030616760254], ["▁moja", -10.69603443145752], ["yd", -10.696158409118652], ["ஜ", -10.696234703063965], ["▁vie", -10.696280479431152], ["▁teis", -10.696433067321777], ["కే", -10.696487426757812], ["ről", -10.696502685546875], ["ப்பட", -10.696517944335938], ["ించారు", -10.696578979492188], ["▁କରିବାକୁ", -10.696885108947754], ["▁deux", -10.6969633102417], ["amba", -10.697397232055664], ["▁жал", -10.697624206542969], ["▁ұ", -10.697938919067383], ["49", -10.698022842407227], ["▁모", -10.698062896728516], ["፧", -10.698145866394043], ["▁pea", -10.698232650756836], ["69", -10.698264122009277], ["ન્સ", -10.698294639587402], ["▁lesz", -10.698382377624512], ["▁priv", -10.698431015014648], ["▁ولسمشر", -10.698570251464844], ["▁tikai", -10.698629379272461], ["▁šta", -10.698689460754395], ["▁weg", -10.698841094970703], ["▁бери", -10.69916820526123], ["issä", -10.69919204711914], ["▁durante", -10.699317932128906], ["ਮਾ", -10.699331283569336], ["▁мыйзам", -10.699390411376953], ["▁gada", -10.699771881103516], ["জা", -10.69980525970459], ["्त", -10.699870109558105], ["▁poi", -10.699912071228027], ["▁څه", -10.699974060058594], ["▁ге", -10.700355529785156], ["kti", -10.70055866241455], ["▁which", -10.70069408416748], ["▁prieš", -10.700699806213379], ["▁bata", -10.70071029663086], ["▁እየተ", -10.700757026672363], ["పా", -10.700997352600098], ["▁эми", -10.701030731201172], ["▁uno", -10.701125144958496], ["▁neza", -10.701183319091797], ["şe", -10.701197624206543], ["రే",
[...]
